unsigned char g_magic_wand_model_data[] = {
  0x1c, 0x00, 0x00, 0x00, 0x54, 0x46, 0x4c, 0x33, 0x14, 0x00, 0x20, 0x00,
  0x1c, 0x00, 0x18, 0x00, 0x14, 0x00, 0x10, 0x00, 0x0c, 0x00, 0x00, 0x00,
  0x08, 0x00, 0x04, 0x00, 0x14, 0x00, 0x00, 0x00, 0x1c, 0x00, 0x00, 0x00,
  0x1c, 0x00, 0x00, 0x00, 0x74, 0x00, 0x00, 0x00, 0x3c, 0x2e, 0x00, 0x00,
  0x4c, 0x2e, 0x00, 0x00, 0xfc, 0x3d, 0x00, 0x00, 0x03, 0x00, 0x00, 0x00,
  0x00, 0x00, 0x00, 0x00, 0x02, 0x00, 0x00, 0x00, 0x34, 0x00, 0x00, 0x00,
  0x04, 0x00, 0x00, 0x00, 0xdc, 0xff, 0xff, 0xff, 0x12, 0x00, 0x00, 0x00,
  0x04, 0x00, 0x00, 0x00, 0x13, 0x00, 0x00, 0x00, 0x43, 0x4f, 0x4e, 0x56,
  0x45, 0x52, 0x53, 0x49, 0x4f, 0x4e, 0x5f, 0x4d, 0x45, 0x54, 0x41, 0x44,
  0x41, 0x54, 0x41, 0x00, 0x08, 0x00, 0x0c, 0x00, 0x08, 0x00, 0x04, 0x00,
  0x08, 0x00, 0x00, 0x00, 0x11, 0x00, 0x00, 0x00, 0x04, 0x00, 0x00, 0x00,
  0x13, 0x00, 0x00, 0x00, 0x6d, 0x69, 0x6e, 0x5f, 0x72, 0x75, 0x6e, 0x74,
  0x69, 0x6d, 0x65, 0x5f, 0x76, 0x65, 0x72, 0x73, 0x69, 0x6f, 0x6e, 0x00,
  0x13, 0x00, 0x00, 0x00, 0xc4, 0x2d, 0x00, 0x00, 0xbc, 0x2d, 0x00, 0x00,
  0xa4, 0x2d, 0x00, 0x00, 0x6c, 0x2d, 0x00, 0x00, 0x5c, 0x19, 0x00, 0x00,
  0xcc, 0x18, 0x00, 0x00, 0xbc, 0x06, 0x00, 0x00, 0x6c, 0x06, 0x00, 0x00,
  0xdc, 0x01, 0x00, 0x00, 0xac, 0x01, 0x00, 0x00, 0xc4, 0x00, 0x00, 0x00,
  0xbc, 0x00, 0x00, 0x00, 0xb4, 0x00, 0x00, 0x00, 0xac, 0x00, 0x00, 0x00,
  0xa4, 0x00, 0x00, 0x00, 0x9c, 0x00, 0x00, 0x00, 0x94, 0x00, 0x00, 0x00,
  0x74, 0x00, 0x00, 0x00, 0x04, 0x00, 0x00, 0x00, 0xee, 0xd1, 0xff, 0xff,
  0x04, 0x00, 0x00, 0x00, 0x60, 0x00, 0x00, 0x00, 0x0c, 0x00, 0x00, 0x00,
  0x08, 0x00, 0x0e, 0x00, 0x08, 0x00, 0x04, 0x00, 0x08, 0x00, 0x00, 0x00,
  0x10, 0x00, 0x00, 0x00, 0x28, 0x00, 0x00, 0x00, 0x00, 0x00, 0x06, 0x00,
  0x08, 0x00, 0x04, 0x00, 0x06, 0x00, 0x00, 0x00, 0x04, 0x00, 0x00, 0x00,
  0x01, 0x00, 0x00, 0x00, 0xeb, 0x03, 0x00, 0x00, 0x0c, 0x00, 0x18, 0x00,
  0x14, 0x00, 0x10, 0x00, 0x0c, 0x00, 0x04, 0x00, 0x0c, 0x00, 0x00, 0x00,
  0x98, 0x87, 0x3d, 0xe3, 0x85, 0x3e, 0x32, 0x03, 0x03, 0x00, 0x00, 0x00,
  0x02, 0x00, 0x00, 0x00, 0x04, 0x00, 0x00, 0x00, 0x06, 0x00, 0x00, 0x00,
  0x32, 0x2e, 0x32, 0x30, 0x2e, 0x30, 0x00, 0x00, 0x5a, 0xd2, 0xff, 0xff,
  0x04, 0x00, 0x00, 0x00, 0x10, 0x00, 0x00, 0x00, 0x31, 0x2e, 0x31, 0x34,
  0x2e, 0x30, 0x00, 0x00, 0x00, 0x00, 0x00, 0x00, 0x00, 0x00, 0x00, 0x00,
  0xe8, 0xc3, 0xff, 0xff, 0xec, 0xc3, 0xff, 0xff, 0xf0, 0xc3, 0xff, 0xff,
  0xf4, 0xc3, 0xff, 0xff, 0xf8, 0xc3, 0xff, 0xff, 0xfc, 0xc3, 0xff, 0xff,
  0x8e, 0xd2, 0xff, 0xff, 0x04, 0x00, 0x00, 0x00, 0xd8, 0x00, 0x00, 0x00,
  0xeb, 0x3b, 0x61, 0xe0, 0x56, 0x7f, 0xe4, 0x4b, 0x7b, 0xbb, 0x64, 0x75,
  0xbb, 0x77, 0x48, 0xb0, 0x33, 0x61, 0xec, 0x1f, 0x29, 0xf6, 0x46, 0x49,
  0xf7, 0x2f, 0x0f, 0xe5, 0x19, 0xa7, 0x99, 0x75, 0xc8, 0xbd, 0x1f, 0xb1,
  0x8f, 0x55, 0xe0, 0xaf, 0x7f, 0xa9, 0xd6, 0x55, 0xb4, 0xd9, 0x2d, 0xce,
  0xd1, 0x68, 0xa3, 0xb9, 0x46, 0xd3, 0x22, 0x1c, 0xdf, 0x4c, 0x3a, 0xc8,
  0x53, 0x1e, 0x01, 0x47, 0x0f, 0xd5, 0x7f, 0x38, 0xb9, 0x73, 0x2a, 0xed,
  0x2c, 0x13, 0xc1, 0x51, 0x22, 0xaa, 0x49, 0x01, 0xce, 0xe6, 0x52, 0x6b,
  0xcf, 0x54, 0x27, 0x99, 0x2f, 0x0d, 0xdd, 0x4a, 0x5e, 0x08, 0x70, 0x4d,
  0xeb, 0x36, 0x44, 0xc2, 0x6f, 0x46, 0x01, 0x4d, 0x7f, 0xbc, 0xd5, 0x0d,
  0xe4, 0x33, 0x27, 0xd7, 0x19, 0xcc, 0xeb, 0x31, 0x02, 0xc1, 0xd8, 0x8c,
  0xc7, 0x7f, 0xd7, 0xcf, 0x63, 0xfd, 0xc7, 0xee, 0xbb, 0xea, 0x75, 0x19,
  0xc6, 0x47, 0xcb, 0xc7, 0x25, 0xa8, 0xb0, 0x5a, 0xb8, 0xa4, 0x52, 0x81,
  0x9d, 0x7d, 0xa2, 0x95, 0x6f, 0xa4, 0xcd, 0x7b, 0x9e, 0xcb, 0x78, 0xd4,
  0x9a, 0x40, 0xa9, 0x11, 0x32, 0xb0, 0xd5, 0x50, 0xac, 0xc5, 0x69, 0xe9,
  0x9e, 0x12, 0x9c, 0x95, 0x7f, 0xeb, 0xe2, 0x74, 0xd5, 0xb1, 0x32, 0x9c,
  0xf9, 0x4e, 0xe4, 0xd2, 0x54, 0xa0, 0x99, 0xc5, 0xe8, 0xd6, 0xec, 0xac,
  0xe0, 0x13, 0xe1, 0xf2, 0x53, 0xe8, 0xbb, 0xcd, 0x81, 0xde, 0x27, 0xb6,
  0xeb, 0x6f, 0xe7, 0xc2, 0xfd, 0x84, 0xec, 0x27, 0xe5, 0x07, 0x34, 0xf9,
  0x72, 0xd3, 0xff, 0xff, 0x04, 0x00, 0x00, 0x00, 0x20, 0x00, 0x00, 0x00,
  0x97, 0xfb, 0xff, 0xff, 0x29, 0x07, 0x00, 0x00, 0x58, 0xff, 0xff, 0xff,
  0x8f, 0xfe, 0xff, 0xff, 0xff, 0xfd, 0xff, 0xff, 0x38, 0x10, 0x00, 0x00,
  0x32, 0xff, 0xff, 0xff, 0x33, 0x06, 0x00, 0x00, 0x9e, 0xd3, 0xff, 0xff,
  0x04, 0x00, 0x00, 0x00, 0x80, 0x04, 0x00, 0x00, 0xfa, 0x56, 0xe7, 0xf9,
  0x56, 0x4a, 0x29, 0x5e, 0x1a, 0x3a, 0x0a, 0x19, 0x66, 0x61, 0x4a, 0x34,
  0x16, 0x36, 0x1c, 0x17, 0x2c, 0x39, 0x3d, 0x39, 0xd2, 0x4a, 0xf1, 0xec,
  0x0f, 0x63, 0x2d, 0x6a, 0xeb, 0x44, 0x37, 0xd7, 0x22, 0x34, 0x42, 0x44,
  0xd8, 0x25, 0x77, 0xbc, 0x1e, 0x07, 0x1a, 0x12, 0xd3, 0x3a, 0x05, 0xe1,
  0x43, 0x3d, 0x16, 0x59, 0xce, 0x22, 0x35, 0xc5, 0xf7, 0x21, 0x05, 0x12,
  0xd6, 0x13, 0x7f, 0x04, 0xdb, 0xe5, 0x04, 0xd4, 0x0f, 0x04, 0x63, 0x28,
  0x06, 0x18, 0x16, 0x1f, 0x04, 0x24, 0x73, 0x20, 0x17, 0x0b, 0x1c, 0xff,
  0xff, 0x17, 0x64, 0x12, 0xf3, 0x1b, 0x10, 0xea, 0xf7, 0x02, 0x43, 0x06,
  0x08, 0x04, 0x06, 0x0d, 0xe6, 0xe4, 0x7f, 0xe9, 0xdd, 0x08, 0xeb, 0xec,
  0xdb, 0xe6, 0x4e, 0xe0, 0xca, 0xe5, 0xe7, 0xce, 0xd9, 0xf4, 0x1f, 0x1a,
  0xe7, 0x0f, 0x01, 0xfe, 0xb0, 0xb6, 0x36, 0xcf, 0x9e, 0xc2, 0xd5, 0xb7,
  0xbd, 0xe7, 0x24, 0xfd, 0xd2, 0xbf, 0xd0, 0xc7, 0x0f, 0x47, 0x15, 0x12,
  0x42, 0x3a, 0x1f, 0x44, 0xff, 0x4f, 0xf6, 0xed, 0x52, 0x28, 0x44, 0x06,
  0xc7, 0x56, 0xf5, 0xd9, 0x20, 0x14, 0x45, 0x29, 0xde, 0x65, 0xbf, 0xe0,
  0x3f, 0x70, 0x2f, 0x67, 0xf3, 0x7f, 0xe7, 0xd8, 0x5c, 0x52, 0x5c, 0x3d,
  0xb5, 0x67, 0x36, 0xff, 0x3d, 0x52, 0x62, 0x31, 0xc7, 0x49, 0xdd, 0xe7,
  0x27, 0x23, 0x0d, 0x47, 0xd7, 0x5d, 0xf1, 0xe2, 0xf6, 0x30, 0x74, 0x47,
  0xd0, 0x38, 0x1a, 0xcd, 0x20, 0x54, 0x1b, 0x3a, 0xf7, 0x0e, 0x7a, 0xdb,
  0x31, 0x23, 0x14, 0x14, 0x1f, 0x32, 0x68, 0x09, 0x47, 0x10, 0x21, 0x0e,
  0x0b, 0x0a, 0x7b, 0x0b, 0x1a, 0x1f, 0x14, 0x19, 0xf3, 0x09, 0x75, 0x25,
  0xc5, 0x15, 0x2d, 0xe2, 0xe2, 0x0f, 0x7f, 0x04, 0x08, 0xf9, 0x08, 0x0c,
  0x18, 0xff, 0x29, 0xee, 0x0e, 0x0f, 0x06, 0xee, 0xb8, 0xac, 0x08, 0xe6,
  0xa5, 0xb0, 0xaf, 0xa8, 0xe8, 0xd7, 0xff, 0xf1, 0xc1, 0xd2, 0xac, 0xdc,
  0xe8, 0x22, 0xba, 0x0c, 0xf2, 0x1f, 0xfb, 0xf4, 0x3e, 0x0b, 0xeb, 0x1d,
  0x0b, 0xb7, 0xda, 0xfc, 0x54, 0x1c, 0xee, 0x47, 0x36, 0xe3, 0x3b, 0x13,
  0x01, 0xe2, 0x12, 0x2e, 0x34, 0xc8, 0xfb, 0xe1, 0x59, 0x1f, 0x04, 0x61,
  0x51, 0x44, 0x4a, 0x5f, 0x68, 0x2e, 0x1c, 0x41, 0x6c, 0x2e, 0x7f, 0x1b,
  0x3a, 0x0b, 0xfb, 0x13, 0xf6, 0x0b, 0x2b, 0xda, 0x30, 0x32, 0x02, 0x39,
  0x41, 0x40, 0x5f, 0x5e, 0x25, 0x01, 0x2e, 0x1e, 0x18, 0x11, 0x52, 0x1b,
  0x22, 0xce, 0x2e, 0xec, 0x12, 0xf2, 0xd3, 0xe7, 0x1a, 0x17, 0xe4, 0x18,
  0x2a, 0x03, 0x32, 0x38, 0xe8, 0x4f, 0xb5, 0x0e, 0x5c, 0x56, 0x38, 0x3c,
  0xbc, 0x31, 0xd4, 0xf4, 0xf1, 0x0b, 0x23, 0x08, 0x03, 0x4c, 0xb9, 0x09,
  0x28, 0x57, 0x19, 0x3f, 0xf3, 0x7f, 0xf9, 0x22, 0x72, 0x48, 0x7c, 0x37,
  0xc1, 0x3a, 0x03, 0xd6, 0x0f, 0x3c, 0x10, 0x11, 0xc3, 0x00, 0xf9, 0x09,
  0x15, 0x30, 0x33, 0x50, 0xcb, 0x3d, 0x32, 0xe5, 0x0b, 0x1b, 0x28, 0x21,
  0xdb, 0x2d, 0x4b, 0xc6, 0xef, 0x0e, 0x27, 0xed, 0x0d, 0xd6, 0xab, 0x35,
  0xef, 0xc2, 0xe1, 0xeb, 0x34, 0x2e, 0x94, 0xfa, 0x1d, 0x13, 0x06, 0x25,
  0xe1, 0xf6, 0x81, 0xee, 0xee, 0xe9, 0x28, 0xfa, 0x2d, 0xf5, 0xb4, 0x29,
  0x39, 0xeb, 0x20, 0xf6, 0x04, 0x3b, 0xd5, 0x03, 0x67, 0x47, 0x2d, 0x7d,
  0xec, 0x66, 0xf0, 0xf9, 0x16, 0x26, 0x57, 0x08, 0x16, 0x15, 0xde, 0x22,
  0x35, 0x3f, 0x3c, 0x3a, 0x1f, 0x68, 0x07, 0x21, 0x3e, 0x2e, 0x54, 0x59,
  0x05, 0x3e, 0x28, 0xdb, 0xfe, 0x13, 0x30, 0xf9, 0xfe, 0x17, 0x9c, 0x0f,
  0x30, 0x12, 0xfa, 0x31, 0xff, 0x29, 0xcb, 0x13, 0x38, 0x14, 0x1f, 0x1b,
  0xcd, 0x09, 0xf8, 0xd9, 0x28, 0x1d, 0x09, 0x14, 0xf7, 0xd3, 0x90, 0xc9,
  0xe8, 0xd5, 0xd4, 0xe5, 0x15, 0x41, 0xa7, 0x2e, 0x5d, 0x11, 0x47, 0x2a,
  0xe2, 0x35, 0x0d, 0x09, 0x10, 0x35, 0x45, 0x1a, 0xb6, 0xbe, 0x81, 0x9f,
  0xbb, 0xe4, 0xce, 0xd5, 0x05, 0x65, 0xee, 0x1b, 0x58, 0x40, 0x35, 0x2d,
  0xec, 0x45, 0x24, 0xe4, 0x1c, 0x51, 0x27, 0x19, 0x5e, 0x09, 0xf6, 0x1b,
  0x2f, 0xf0, 0xfa, 0xf6, 0x7b, 0x2b, 0x00, 0x29, 0x00, 0xdd, 0xee, 0x1b,
  0x41, 0x46, 0x14, 0x28, 0x59, 0x03, 0x24, 0x23, 0xd5, 0xd0, 0xf4, 0xdc,
  0xe1, 0xc2, 0xee, 0xbc, 0x40, 0x05, 0xe4, 0x43, 0x3a, 0x0d, 0xea, 0x1a,
  0x7f, 0x5b, 0x24, 0x52, 0x70, 0x53, 0x34, 0x73, 0xdf, 0xdf, 0x20, 0xcb,
  0xf0, 0xcc, 0x20, 0xe1, 0x38, 0x48, 0xf9, 0x01, 0x1e, 0x11, 0x1c, 0x1d,
  0x49, 0x01, 0x1d, 0x0c, 0x23, 0x02, 0x45, 0x31, 0x1b, 0xfe, 0xf7, 0x1b,
  0x12, 0x36, 0x20, 0x38, 0xf9, 0xef, 0xa5, 0x15, 0xc9, 0xfa, 0xf8, 0xc7,
  0x16, 0x31, 0xe9, 0xe9, 0x26, 0x37, 0x0b, 0x5c, 0x26, 0x36, 0xe9, 0x34,
  0x39, 0x51, 0x28, 0x4b, 0xab, 0xe5, 0x92, 0xb6, 0x81, 0xe4, 0x08, 0xbb,
  0xf2, 0x44, 0x02, 0xcb, 0x46, 0x36, 0x04, 0x6d, 0x17, 0x03, 0xe0, 0x12,
  0xfb, 0x3b, 0x50, 0x3c, 0x87, 0xfe, 0x98, 0x9f, 0xaf, 0xf5, 0xf2, 0x01,
  0x15, 0x21, 0x1c, 0x13, 0x46, 0x1f, 0x10, 0x49, 0xfd, 0x0b, 0xd3, 0xe6,
  0x09, 0x27, 0x1b, 0x00, 0x11, 0x2c, 0xd3, 0xe8, 0x2c, 0x26, 0x40, 0x05,
  0xe5, 0x0c, 0xf1, 0xfc, 0x2c, 0x13, 0x04, 0x29, 0xfb, 0x5b, 0xd5, 0xfe,
  0x10, 0x33, 0x41, 0x4f, 0xe5, 0x78, 0x07, 0x2a, 0x34, 0x5a, 0x7f, 0x2a,
  0xf2, 0x22, 0x17, 0xd5, 0xff, 0x3d, 0x3c, 0x41, 0xf2, 0x10, 0xe5, 0xe6,
  0xf8, 0x29, 0x2e, 0x2e, 0xf3, 0x2e, 0x10, 0x03, 0x0d, 0x3b, 0x59, 0x08,
  0xcb, 0xfc, 0x27, 0xeb, 0x13, 0x12, 0x22, 0x30, 0x50, 0xe6, 0xe2, 0x13,
  0x35, 0xf2, 0x1f, 0xdc, 0x35, 0x0a, 0xa1, 0x55, 0x40, 0xf1, 0x53, 0x0f,
  0x29, 0x2f, 0xa1, 0x15, 0xff, 0x30, 0x04, 0xf6, 0x52, 0x2c, 0x9d, 0x23,
  0x30, 0x32, 0x3c, 0x19, 0x6a, 0x4e, 0xdf, 0x7f, 0x50, 0x08, 0x43, 0xf9,
  0x12, 0x09, 0xc6, 0x1f, 0x1e, 0x05, 0x38, 0xec, 0xf9, 0x0b, 0xbf, 0xfc,
  0x2f, 0x18, 0xf5, 0x4b, 0x40, 0x01, 0xfe, 0x07, 0x24, 0xf6, 0x3a, 0x24,
  0xd9, 0x04, 0x2e, 0xe1, 0x10, 0xec, 0x26, 0x01, 0x53, 0x0e, 0xf1, 0x57,
  0x27, 0x05, 0x0d, 0xe1, 0x71, 0xfb, 0xbe, 0x63, 0x2c, 0xf3, 0xff, 0xf5,
  0x41, 0xf1, 0xc7, 0x2e, 0x26, 0xfc, 0xdc, 0x10, 0x7f, 0xfe, 0xda, 0x76,
  0x3b, 0x28, 0x12, 0x1b, 0x53, 0xf8, 0xf7, 0x5a, 0x3a, 0x0c, 0x17, 0xfb,
  0x2f, 0xf5, 0xdc, 0x43, 0x24, 0x1f, 0x27, 0xd7, 0x30, 0xe5, 0x08, 0x27,
  0x07, 0xe2, 0x23, 0xf0, 0x2e, 0x0b, 0xee, 0x44, 0x20, 0xd4, 0x0d, 0xdf,
  0x2c, 0xe0, 0xd2, 0x0e, 0xdb, 0xd5, 0xdf, 0xc8, 0x22, 0xe1, 0xff, 0x26,
  0xe5, 0x03, 0x27, 0xef, 0x97, 0x1e, 0xd1, 0xc4, 0x04, 0x0c, 0x27, 0x30,
  0x8e, 0xec, 0xaf, 0x81, 0xb3, 0xe7, 0xf6, 0x3a, 0x14, 0x35, 0x52, 0x4f,
  0x1d, 0x28, 0x64, 0x39, 0xc9, 0x48, 0x28, 0x0e, 0x0f, 0x3b, 0x4c, 0x17,
  0x9c, 0x15, 0x23, 0xa6, 0x09, 0x2d, 0xf4, 0x1d, 0x19, 0x22, 0x62, 0x27,
  0x25, 0x3b, 0x33, 0x1b, 0xd9, 0x40, 0x50, 0x33, 0xf6, 0x34, 0x55, 0xfd,
  0xf8, 0x10, 0x36, 0xe4, 0x0a, 0x13, 0x2a, 0xde, 0x8f, 0xdd, 0xaf, 0x81,
  0xc9, 0xdf, 0xab, 0xf8, 0xee, 0x22, 0xd2, 0xea, 0x2f, 0x12, 0x18, 0x32,
  0xf1, 0x33, 0xf9, 0x1b, 0x23, 0x23, 0x18, 0x20, 0xaa, 0xe5, 0xa3, 0xa1,
  0xd4, 0xdd, 0xc3, 0xee, 0xfe, 0x38, 0xfc, 0x0c, 0x3c, 0x2f, 0x28, 0x45,
  0x0b, 0x39, 0x26, 0x0d, 0x1e, 0x3e, 0x3e, 0x47, 0xd5, 0xfd, 0xd9, 0xb5,
  0x03, 0xfa, 0xe4, 0x2b, 0x13, 0x32, 0x16, 0x22, 0x29, 0x2a, 0x37, 0x14,
  0x07, 0x07, 0x10, 0x15, 0xf1, 0x0d, 0x0a, 0x17, 0xb6, 0x19, 0x35, 0xb8,
  0x19, 0x48, 0x05, 0x23, 0xe9, 0x1a, 0x20, 0xec, 0x6d, 0x46, 0x5b, 0x4c,
  0xff, 0x5d, 0x2f, 0x0f, 0x33, 0x54, 0x2f, 0x12, 0xf3, 0x55, 0x33, 0x0a,
  0x3c, 0x64, 0x4a, 0x1a, 0x3b, 0x6e, 0x07, 0x18, 0x7f, 0x66, 0x79, 0x3f,
  0x2a, 0x15, 0x0f, 0x39, 0xf6, 0x25, 0x60, 0x2e, 0xc2, 0xea, 0x20, 0xfb,
  0xda, 0xd6, 0xe0, 0xfc, 0xf6, 0xe2, 0xf3, 0x1d, 0x0e, 0x02, 0x5a, 0xe9,
  0xdb, 0xf7, 0xf3, 0x03, 0xfd, 0x04, 0xee, 0x1a, 0x2a, 0xd8, 0xff, 0xff,
  0x04, 0x00, 0x00, 0x00, 0x40, 0x00, 0x00, 0x00, 0xfa, 0xf6, 0xff, 0xff,
  0xa1, 0x07, 0x00, 0x00, 0x6a, 0xfe, 0xff, 0xff, 0x8d, 0x03, 0x00, 0x00,
  0xbd, 0xf9, 0xff, 0xff, 0x70, 0xf9, 0xff, 0xff, 0x60, 0xf9, 0xff, 0xff,
  0x70, 0x06, 0x00, 0x00, 0x8e, 0xfa, 0xff, 0xff, 0x43, 0x09, 0x00, 0x00,
  0x28, 0xfe, 0xff, 0xff, 0x35, 0xfa, 0xff, 0xff, 0x01, 0x01, 0x00, 0x00,
  0x66, 0x01, 0x00, 0x00, 0xce, 0xfe, 0xff, 0xff, 0xfc, 0xf1, 0xff, 0xff,
  0x76, 0xd8, 0xff, 0xff, 0x04, 0x00, 0x00, 0x00, 0x00, 0x12, 0x00, 0x00,
  0xf9, 0xe0, 0xd3, 0x0a, 0x07, 0xe2, 0x1e, 0xeb, 0x25, 0xe0, 0x08, 0x29,
  0x41, 0xd1, 0x15, 0xed, 0xc4, 0xfc, 0xe6, 0xfc, 0x1e, 0x0c, 0x06, 0x3a,
  0x24, 0x69, 0x15, 0x0f, 0x43, 0xfc, 0xe7, 0xdf, 0xec, 0xd7, 0x28, 0xd1,
  0xf5, 0x2d, 0x23, 0x3a, 0xd0, 0x35, 0x11, 0x0f, 0xfc, 0x0f, 0xfd, 0x01,
  0x0f, 0x32, 0xd8, 0xf8, 0xcc, 0xbf, 0x81, 0xce, 0xec, 0x33, 0xe8, 0xd3,
  0xde, 0xb1, 0x9e, 0xd9, 0xce, 0xb9, 0x0f, 0xc8, 0xc7, 0x08, 0x0d, 0x48,
  0xfc, 0x73, 0xe0, 0x13, 0xe7, 0xe7, 0x04, 0xd3, 0xeb, 0xeb, 0x21, 0xc3,
  0x0f, 0xfd, 0x15, 0x5d, 0xe0, 0x6d, 0x0e, 0x1d, 0xe8, 0x16, 0x59, 0xdf,
  0xfa, 0x1c, 0x06, 0xf9, 0xd3, 0xde, 0xc6, 0x2b, 0xb2, 0xf0, 0xd9, 0xa6,
  0x84, 0x21, 0x9e, 0xbf, 0xf2, 0x84, 0x07, 0x00, 0xfe, 0xfa, 0x34, 0x33,
  0x35, 0x3c, 0xe4, 0xec, 0xf8, 0xff, 0x2d, 0xe3, 0xf0, 0x02, 0xea, 0xfc,
  0x2e, 0x30, 0x24, 0x06, 0xdf, 0x13, 0x24, 0x17, 0x27, 0x56, 0x4b, 0xf9,
  0x48, 0xce, 0x34, 0x40, 0x04, 0x39, 0xf8, 0xf2, 0xfd, 0x04, 0x1e, 0xf8,
  0xed, 0x45, 0xee, 0x54, 0xe3, 0xe6, 0x07, 0x9a, 0xe8, 0xdc, 0xe3, 0x0d,
  0xce, 0x30, 0x06, 0xcf, 0x02, 0xfb, 0x43, 0xb8, 0xbb, 0xe5, 0xd5, 0xa7,
  0x18, 0x02, 0x2f, 0x24, 0xcf, 0xf0, 0xd4, 0xf5, 0xf7, 0x1b, 0x14, 0xbe,
  0x1c, 0xe6, 0x3c, 0x16, 0xf1, 0x32, 0xff, 0xa9, 0xd5, 0x2c, 0x2d, 0xfa,
  0xed, 0x11, 0x13, 0x1c, 0x39, 0xe7, 0x3d, 0xb9, 0xed, 0x04, 0x0d, 0xfa,
  0xfb, 0x6e, 0x1a, 0xd7, 0xea, 0xcf, 0x7f, 0xe5, 0x27, 0x47, 0xdf, 0x10,
  0xfb, 0xee, 0xe6, 0xf7, 0x30, 0x14, 0x10, 0x50, 0x53, 0x0b, 0x2e, 0x3f,
  0xe1, 0xd3, 0x19, 0xea, 0x04, 0xdd, 0xd0, 0xc1, 0xf5, 0xd3, 0xe5, 0x24,
  0x2a, 0xd3, 0xec, 0xd3, 0xed, 0xec, 0x2c, 0xf6, 0xf0, 0x1c, 0xe5, 0xf1,
  0xe0, 0x32, 0xfe, 0xfe, 0xef, 0x15, 0xe8, 0xe8, 0xf9, 0xfa, 0x18, 0xf9,
  0x10, 0x05, 0x0e, 0x21, 0xbc, 0xc8, 0xf2, 0x10, 0x00, 0x06, 0xf6, 0xec,
  0xdd, 0x91, 0xbe, 0x06, 0x18, 0xf1, 0x1c, 0xb7, 0x15, 0xc1, 0xe2, 0x11,
  0xf4, 0x03, 0xd5, 0xff, 0x13, 0xae, 0x0a, 0xba, 0xf4, 0xd1, 0x22, 0x0b,
  0x0d, 0xf6, 0xe8, 0x1c, 0xeb, 0xed, 0xe8, 0xd8, 0xcf, 0x12, 0x0a, 0xbb,
  0x12, 0x00, 0x2c, 0x0b, 0x17, 0x9b, 0xd9, 0xda, 0xe8, 0xec, 0xfc, 0xe6,
  0x28, 0xde, 0x3e, 0x24, 0xe2, 0x12, 0x03, 0x40, 0x4d, 0x10, 0x1a, 0x04,
  0x11, 0xc7, 0xfa, 0x3e, 0x20, 0xaa, 0x2f, 0xc8, 0x0a, 0x36, 0x11, 0x4d,
  0xeb, 0x7f, 0x1e, 0x48, 0xf9, 0x11, 0x65, 0x33, 0x13, 0x39, 0x34, 0x07,
  0x35, 0x36, 0x01, 0x29, 0xfc, 0xc4, 0x50, 0x3a, 0x07, 0xf0, 0x08, 0x14,
  0xf0, 0xd4, 0x11, 0xa6, 0xad, 0xea, 0xd6, 0x14, 0xb5, 0x79, 0x05, 0xd7,
  0xae, 0x02, 0x29, 0xe9, 0x2e, 0xcf, 0xe6, 0x08, 0x02, 0x15, 0x15, 0x1e,
  0x23, 0x65, 0x0d, 0x03, 0xcb, 0xda, 0x5b, 0x21, 0xfc, 0xd6, 0x34, 0x0c,
  0xd8, 0x21, 0xef, 0x2c, 0xeb, 0xbf, 0x1f, 0xf2, 0xdb, 0x0d, 0xbe, 0xed,
  0xe4, 0x20, 0xec, 0xe6, 0x26, 0xfe, 0x13, 0x00, 0xf7, 0xf0, 0x02, 0xff,
  0x2c, 0xee, 0xed, 0xf5, 0xe4, 0x2f, 0xec, 0x4c, 0x0c, 0xe7, 0x0f, 0xef,
  0x1a, 0x98, 0x0b, 0x0a, 0x17, 0xf0, 0x8e, 0xfc, 0x0d, 0x06, 0x17, 0x29,
  0x29, 0x0f, 0x28, 0x08, 0xfc, 0x12, 0x22, 0x12, 0x2c, 0x22, 0xdc, 0x23,
  0xfd, 0xe2, 0xe5, 0xd2, 0x0e, 0xe5, 0x1f, 0xdb, 0x32, 0xda, 0x18, 0x0b,
  0x2b, 0xd8, 0xe7, 0x00, 0xf1, 0xcc, 0x03, 0xec, 0x34, 0x07, 0x27, 0xf0,
  0x28, 0xe1, 0xf4, 0x59, 0x7f, 0xef, 0xaf, 0xff, 0xfa, 0xdc, 0xe3, 0xc6,
  0x0f, 0xf2, 0xfc, 0xd6, 0x04, 0xfc, 0xf6, 0x1f, 0x43, 0xdc, 0xf4, 0x13,
  0xf8, 0xc8, 0xec, 0xbe, 0x1e, 0x15, 0x1c, 0x10, 0x2b, 0xf4, 0xf8, 0x40,
  0x25, 0xe7, 0xfa, 0x1a, 0xf1, 0xba, 0x15, 0xd4, 0x06, 0x1e, 0x21, 0x16,
  0x24, 0xc0, 0x0a, 0x3a, 0x48, 0xd9, 0xcb, 0x0b, 0xfe, 0xd6, 0xe9, 0xd7,
  0x2a, 0x03, 0x2e, 0x00, 0x12, 0xe9, 0xf4, 0x0b, 0x22, 0xf7, 0xbd, 0xea,
  0xda, 0x11, 0x17, 0x11, 0xc0, 0xe5, 0xef, 0x28, 0x09, 0xf7, 0xf2, 0xe4,
  0xb9, 0xc7, 0x08, 0x10, 0x04, 0xcc, 0x19, 0xd6, 0x10, 0xfc, 0x1c, 0x49,
  0x01, 0x0e, 0x0e, 0x1a, 0xf1, 0x15, 0x08, 0x00, 0xfb, 0x33, 0x0f, 0xd9,
  0x02, 0x05, 0x04, 0x10, 0xf5, 0x1b, 0x1a, 0xee, 0x09, 0xf1, 0x41, 0xf7,
  0xe4, 0xfd, 0xfe, 0x05, 0xa3, 0xc7, 0xcb, 0xd8, 0xfa, 0x34, 0xdc, 0xae,
  0x8a, 0xd1, 0xfb, 0xce, 0x2e, 0xe8, 0x31, 0xc7, 0x34, 0x3f, 0x16, 0x50,
  0x00, 0x6b, 0x2f, 0x1d, 0x0c, 0x1d, 0x7f, 0x10, 0xe4, 0x0f, 0xea, 0xc4,
  0x0d, 0xf1, 0x06, 0x22, 0xe2, 0x17, 0xf3, 0x19, 0x08, 0xdc, 0x1f, 0xf7,
  0x05, 0x0b, 0x04, 0x05, 0xea, 0xfe, 0xf4, 0xe9, 0x00, 0x32, 0x16, 0xf9,
  0xf0, 0x10, 0x2e, 0x11, 0x24, 0x19, 0xf2, 0xfc, 0xfe, 0x16, 0x05, 0xea,
  0xf3, 0x3f, 0x00, 0x0e, 0x02, 0x19, 0x63, 0x18, 0xec, 0xc8, 0xf9, 0xec,
  0xe6, 0x1f, 0x24, 0x38, 0x05, 0xcb, 0xfb, 0x02, 0x15, 0xe4, 0x0f, 0x13,
  0xea, 0xe3, 0x01, 0xea, 0x2c, 0xe6, 0x5a, 0xb9, 0x03, 0x93, 0x0a, 0x04,
  0x16, 0x0f, 0xcd, 0xf1, 0x2b, 0x06, 0x44, 0xf1, 0x01, 0x3c, 0x26, 0xc8,
  0x2e, 0xa6, 0x39, 0x0d, 0x03, 0x6f, 0xa6, 0x33, 0x0c, 0xa0, 0x07, 0xe7,
  0x14, 0x3c, 0x32, 0x0e, 0x2a, 0xfc, 0x4c, 0x0e, 0x01, 0x52, 0xd5, 0x04,
  0x01, 0x30, 0xeb, 0x54, 0x0c, 0xe2, 0xe0, 0xe0, 0xe2, 0x0c, 0xe7, 0xf1,
  0x18, 0x8d, 0xe0, 0x08, 0x43, 0x0c, 0x4b, 0x49, 0x17, 0x11, 0x08, 0x15,
  0x1a, 0x81, 0x31, 0x4f, 0x20, 0xf6, 0xf6, 0xfa, 0x33, 0xdb, 0x31, 0x3d,
  0xe7, 0xfc, 0x1a, 0xd2, 0x23, 0xe9, 0x12, 0xda, 0x0b, 0xf8, 0x2b, 0xe4,
  0xd3, 0x95, 0xf5, 0x99, 0xc1, 0x06, 0x14, 0xca, 0xf0, 0xb6, 0xf5, 0xd2,
  0xb5, 0x9a, 0xd9, 0x03, 0x41, 0x0f, 0x10, 0x3d, 0x1a, 0xea, 0xf5, 0x0c,
  0x3a, 0xcf, 0x3d, 0xba, 0xf6, 0xe8, 0x38, 0x47, 0x0b, 0x19, 0xe1, 0xf0,
  0x29, 0x26, 0x11, 0xc2, 0x17, 0xcc, 0x01, 0xcf, 0x09, 0x43, 0xe9, 0x0f,
  0xd0, 0x00, 0xeb, 0x2a, 0xd2, 0xd1, 0xf3, 0x11, 0xf2, 0x4e, 0x05, 0xd6,
  0x05, 0x05, 0xef, 0x15, 0xf0, 0xdb, 0x01, 0xd3, 0xf0, 0x17, 0x23, 0x42,
  0xf4, 0x5c, 0xfa, 0x11, 0x14, 0x14, 0x54, 0x18, 0x00, 0xed, 0x02, 0xdc,
  0xd9, 0x01, 0xef, 0xfe, 0xae, 0x0c, 0xeb, 0xdf, 0xd9, 0xf8, 0xf4, 0xde,
  0xc0, 0xda, 0xf4, 0xce, 0xcd, 0xf2, 0xe3, 0xea, 0xff, 0x3a, 0xe9, 0xd6,
  0x03, 0xde, 0x05, 0xdf, 0xef, 0xdf, 0x27, 0xed, 0x1d, 0x0f, 0x40, 0x74,
  0x0d, 0x60, 0x30, 0x31, 0x36, 0x00, 0x7f, 0xfb, 0xec, 0x19, 0xff, 0xf7,
  0x03, 0x06, 0xed, 0x06, 0xa9, 0xf5, 0xfa, 0xe0, 0xf9, 0xf3, 0xb0, 0xe9,
  0xf4, 0xda, 0xf2, 0xd3, 0xed, 0xfd, 0x1a, 0xfa, 0xe4, 0x23, 0x02, 0xfd,
  0xea, 0x2c, 0x17, 0xe6, 0x11, 0xfc, 0x12, 0xeb, 0x0f, 0x29, 0x00, 0x1a,
  0x1f, 0x4e, 0x0b, 0x01, 0x00, 0xfc, 0x6b, 0x02, 0xdd, 0xd7, 0x01, 0xe6,
  0xdc, 0xe3, 0xef, 0x06, 0xd9, 0x01, 0xec, 0xe9, 0xed, 0xed, 0xb9, 0xeb,
  0xf9, 0xa8, 0x0b, 0xd9, 0xfd, 0xf5, 0x28, 0x34, 0x13, 0xa0, 0xee, 0xfa,
  0xec, 0xf9, 0xeb, 0xec, 0x15, 0xe3, 0x00, 0xbb, 0x0c, 0xdd, 0x06, 0xa9,
  0xea, 0x8d, 0xeb, 0x22, 0x15, 0xfe, 0xa5, 0xde, 0xf4, 0x0a, 0x00, 0x1c,
  0x12, 0xff, 0x00, 0xda, 0x0d, 0x00, 0xf6, 0xe4, 0xda, 0x23, 0xe9, 0x0f,
  0x0a, 0xcd, 0x2a, 0x28, 0x1c, 0x38, 0x29, 0x24, 0x07, 0x0f, 0x35, 0x34,
  0x19, 0x17, 0xfa, 0x27, 0x2e, 0xe7, 0x33, 0x26, 0x35, 0x1b, 0x11, 0xef,
  0x16, 0x81, 0x37, 0x20, 0x0b, 0x28, 0xfb, 0x3d, 0x22, 0x0d, 0x14, 0x09,
  0x20, 0x19, 0x0d, 0xf3, 0x2f, 0xd4, 0x0e, 0x1b, 0x23, 0x15, 0xda, 0x25,
  0xf4, 0xfd, 0x11, 0xe9, 0xb0, 0xe1, 0xcd, 0x30, 0xdd, 0xf1, 0xff, 0xe1,
  0xd8, 0xc0, 0x08, 0xf0, 0x2f, 0x18, 0x2a, 0x2d, 0xf4, 0x1c, 0xe1, 0xf5,
  0xfb, 0xe4, 0x2d, 0xfc, 0xfb, 0xd9, 0xf1, 0x25, 0x06, 0xf6, 0x1e, 0x25,
  0x1b, 0x02, 0xe5, 0xf2, 0x1f, 0xee, 0xf8, 0xf3, 0xfa, 0xfd, 0xf9, 0x19,
  0x24, 0xe1, 0x11, 0x12, 0x15, 0x33, 0x15, 0xf9, 0x04, 0x3a, 0x02, 0x35,
  0x1a, 0xf0, 0x09, 0x1c, 0x19, 0x30, 0xe6, 0x1f, 0xd2, 0x03, 0xe7, 0x0e,
  0xeb, 0xe3, 0x17, 0xec, 0xf8, 0xe0, 0x33, 0x19, 0x10, 0xc7, 0x20, 0x10,
  0xd9, 0x15, 0xf6, 0x3e, 0x1f, 0xbb, 0x16, 0xff, 0xe8, 0xc7, 0xcb, 0xf2,
  0xfd, 0x0d, 0xe8, 0xcf, 0xd0, 0xdc, 0xfe, 0x1b, 0xf8, 0x15, 0xec, 0xf6,
  0xfa, 0xec, 0x0f, 0xdb, 0x01, 0xf1, 0xf2, 0x09, 0x04, 0x07, 0x1a, 0x1d,
  0x11, 0xcd, 0x15, 0x0f, 0x16, 0xf1, 0x05, 0xfe, 0x0e, 0x1e, 0xe6, 0x37,
  0x23, 0x08, 0x04, 0xdf, 0x05, 0x05, 0x11, 0x09, 0xfa, 0x24, 0xfa, 0x1a,
  0xe2, 0xc5, 0xe3, 0xde, 0xfe, 0x03, 0x1d, 0x2a, 0xff, 0x44, 0x05, 0xfd,
  0xf8, 0x2c, 0xd4, 0xe3, 0x3a, 0x15, 0x1b, 0x03, 0x29, 0x1f, 0x07, 0x19,
  0xf8, 0xee, 0x19, 0x23, 0xf3, 0x16, 0x40, 0x05, 0xe9, 0x62, 0xbb, 0x1b,
  0xf2, 0xe5, 0xa6, 0x81, 0xbd, 0xa0, 0xbe, 0xe4, 0xcb, 0x15, 0xc1, 0xe5,
  0xb3, 0xce, 0xc1, 0xde, 0xc6, 0xcc, 0xfd, 0x2c, 0xcd, 0xef, 0xf3, 0xda,
  0x99, 0xe4, 0xd9, 0x9c, 0x1e, 0xf1, 0xf4, 0x32, 0xf2, 0xed, 0xe6, 0x1e,
  0xff, 0xf4, 0xdf, 0xca, 0xbe, 0xf5, 0x23, 0xf5, 0xfa, 0x37, 0x05, 0x10,
  0xf9, 0x0c, 0xec, 0xde, 0xed, 0xe4, 0x24, 0xe3, 0x06, 0x1e, 0xf7, 0xff,
  0x27, 0x06, 0x18, 0x0c, 0xd7, 0xfa, 0x40, 0x42, 0x19, 0x30, 0x10, 0xe6,
  0xec, 0x1b, 0x54, 0xf3, 0x3e, 0x50, 0x67, 0x49, 0x13, 0x73, 0x50, 0x21,
  0x17, 0x25, 0x67, 0x33, 0x2e, 0x4d, 0x7f, 0x3b, 0x1c, 0x4c, 0x3d, 0x27,
  0xe8, 0x0f, 0x1f, 0x12, 0x01, 0x03, 0x05, 0x03, 0xd8, 0x1c, 0xf6, 0x1f,
  0x17, 0x55, 0x10, 0x0c, 0x13, 0xfe, 0xd3, 0xc4, 0xd4, 0xca, 0x14, 0xfa,
  0xec, 0x33, 0x67, 0x2a, 0xc1, 0x0a, 0xbf, 0x21, 0xb8, 0xc4, 0x88, 0xa3,
  0xb8, 0x22, 0x90, 0xb8, 0xcd, 0x02, 0x8f, 0xb6, 0xfa, 0xd8, 0x0d, 0xe7,
  0xde, 0xe1, 0x07, 0x02, 0xfa, 0x00, 0x13, 0xf5, 0xda, 0xe3, 0x24, 0xd0,
  0x16, 0x0b, 0x39, 0x12, 0xfc, 0x18, 0x1d, 0x0e, 0x13, 0x20, 0x2c, 0x12,
  0xfe, 0x10, 0xfe, 0x18, 0x19, 0xdd, 0xf6, 0xeb, 0x1a, 0xf6, 0x0b, 0xe8,
  0x07, 0xd5, 0x08, 0x18, 0x24, 0x0c, 0xf8, 0x0b, 0x0c, 0x21, 0xe6, 0x2a,
  0x0e, 0xe3, 0xe6, 0xd4, 0x13, 0xd0, 0xe5, 0xf3, 0x0b, 0xd4, 0xfe, 0x08,
  0x18, 0x07, 0x0d, 0xf7, 0x23, 0x0d, 0x07, 0x07, 0x03, 0x25, 0x27, 0x2c,
  0x27, 0xee, 0x1a, 0x0e, 0xd4, 0x02, 0xcc, 0xe3, 0xd0, 0xd7, 0xc6, 0xee,
  0x01, 0x17, 0xcf, 0xd3, 0xed, 0xb0, 0xe2, 0xcf, 0xdf, 0x12, 0xfc, 0xfe,
  0xc8, 0xf5, 0x04, 0x1c, 0xe7, 0xfc, 0x02, 0xe7, 0xe8, 0x10, 0x1c, 0xf0,
  0x1a, 0xde, 0x0b, 0x01, 0x1d, 0x03, 0x0e, 0x57, 0x2a, 0x7f, 0xfe, 0x06,
  0x03, 0x01, 0x30, 0x0a, 0xf1, 0xfe, 0xbe, 0xc9, 0xed, 0xd1, 0xda, 0x01,
  0x00, 0x27, 0xcb, 0xd0, 0xe8, 0xf9, 0xe9, 0xba, 0x0a, 0x41, 0xfd, 0xfd,
  0x0e, 0x1d, 0x15, 0x15, 0x11, 0xe4, 0x0c, 0x0b, 0xf9, 0x12, 0x33, 0xfb,
  0x2e, 0xc8, 0x2f, 0x0a, 0x07, 0x35, 0x18, 0x10, 0x14, 0xfc, 0x22, 0x16,
  0x2e, 0x03, 0xe5, 0x03, 0xf2, 0x98, 0x10, 0xe1, 0xfd, 0x3b, 0x52, 0x2e,
  0x28, 0xa6, 0x00, 0x2d, 0xf7, 0xdb, 0x12, 0xee, 0xed, 0xfa, 0xfe, 0x08,
  0xf9, 0x07, 0x3f, 0x24, 0x0b, 0xe6, 0x08, 0x29, 0x07, 0xf8, 0x0f, 0x19,
  0x2f, 0xe6, 0x2b, 0x15, 0x14, 0x16, 0x14, 0xee, 0xfa, 0x6c, 0x2c, 0xf3,
  0xbd, 0x25, 0x02, 0xf6, 0x14, 0xf3, 0x1f, 0x05, 0x06, 0xff, 0xe7, 0xd8,
  0xf7, 0xec, 0x19, 0x07, 0xf5, 0xfa, 0xfb, 0x34, 0xf7, 0xdc, 0x00, 0xd8,
  0xc8, 0x26, 0xf6, 0xd9, 0x0a, 0xeb, 0xd8, 0x04, 0xe0, 0xe3, 0x18, 0xfc,
  0xff, 0x02, 0x1e, 0x02, 0xfb, 0xfb, 0xe7, 0x00, 0x13, 0x81, 0x10, 0x15,
  0x0d, 0x01, 0x11, 0x24, 0x0d, 0x08, 0xd8, 0x41, 0x18, 0xcf, 0x1f, 0x0e,
  0x0f, 0x84, 0xf1, 0x0b, 0x11, 0xe7, 0xb4, 0x31, 0xe3, 0xf6, 0xd7, 0xf7,
  0x0e, 0x12, 0x17, 0xa5, 0xb3, 0xd8, 0x0e, 0x17, 0xe8, 0x6e, 0xe0, 0x0c,
  0x26, 0x40, 0x02, 0x32, 0x28, 0x02, 0x1b, 0xd1, 0xdd, 0xce, 0xf7, 0x18,
  0xdf, 0xfa, 0xc5, 0xfd, 0xfe, 0x15, 0x59, 0x21, 0x24, 0x60, 0x16, 0x4a,
  0x26, 0xd0, 0x49, 0x46, 0x23, 0x44, 0xdb, 0x32, 0xf9, 0x94, 0x24, 0x2a,
  0xe7, 0x1a, 0x1c, 0x24, 0xee, 0xa5, 0x2d, 0x20, 0xbd, 0xfc, 0xda, 0x42,
  0xec, 0x24, 0xe7, 0x30, 0xcb, 0xc9, 0xc9, 0xbf, 0xc0, 0xd6, 0xe7, 0xe0,
  0xb2, 0xb3, 0xb0, 0xd4, 0x43, 0x1d, 0x12, 0xc2, 0x14, 0x26, 0x3f, 0x3d,
  0x08, 0xed, 0xfc, 0x38, 0xb8, 0xbe, 0x0b, 0x05, 0xeb, 0xa1, 0x25, 0xe2,
  0xe2, 0x3f, 0x3c, 0x37, 0xb0, 0x37, 0x16, 0xe7, 0x0d, 0x1f, 0x1b, 0xe1,
  0xbd, 0xf7, 0x12, 0xf1, 0xa1, 0x01, 0xd7, 0x34, 0x13, 0x39, 0x13, 0xf8,
  0xbe, 0x91, 0x18, 0xf5, 0x39, 0x03, 0x24, 0x42, 0xf0, 0xfe, 0x33, 0x47,
  0x20, 0x1d, 0x37, 0xe9, 0xcc, 0xc7, 0x7f, 0xfe, 0x1b, 0x04, 0x01, 0x3b,
  0x14, 0x3f, 0xe4, 0x13, 0xe0, 0xf2, 0xf7, 0xc0, 0xd8, 0x23, 0x7f, 0x43,
  0x02, 0xf9, 0xfa, 0xf0, 0x0d, 0x0a, 0xfd, 0xef, 0x15, 0xe7, 0xea, 0x1f,
  0x0e, 0xf1, 0xda, 0x14, 0xde, 0xae, 0xd8, 0xe2, 0x05, 0xf9, 0x1b, 0x29,
  0x10, 0xd0, 0xf3, 0x29, 0x3c, 0xf8, 0x06, 0xf4, 0xf6, 0xbe, 0x08, 0x07,
  0x06, 0x02, 0x31, 0x3d, 0x2a, 0x01, 0x0d, 0x1c, 0x25, 0x0a, 0xe6, 0x02,
  0x29, 0x2a, 0x09, 0x17, 0xf7, 0x00, 0x33, 0xe6, 0xee, 0xce, 0x0b, 0xe4,
  0xd0, 0x1d, 0xf4, 0xf7, 0x2e, 0x32, 0x22, 0x28, 0x0c, 0x22, 0x0b, 0xd6,
  0xfe, 0xba, 0xf6, 0xf6, 0xf7, 0x0b, 0xf5, 0x18, 0x09, 0xe7, 0x23, 0xfb,
  0x03, 0x27, 0x0a, 0xba, 0x23, 0x2f, 0x0c, 0x1a, 0x11, 0xe9, 0x2b, 0x00,
  0x30, 0x39, 0xf8, 0x0d, 0xf7, 0xf2, 0x07, 0xd8, 0xe3, 0xd4, 0xee, 0xe2,
  0xe7, 0x17, 0xce, 0xfb, 0x1c, 0x4e, 0xf3, 0x13, 0x02, 0x1c, 0x18, 0xd9,
  0xf9, 0x81, 0xff, 0x0a, 0xf5, 0x1d, 0x26, 0x11, 0xd7, 0xb1, 0xc6, 0xf5,
  0x05, 0xf8, 0xff, 0xbf, 0x28, 0xab, 0xee, 0x08, 0x23, 0x00, 0x13, 0xfc,
  0xf7, 0x0c, 0x1d, 0x71, 0x22, 0xec, 0x11, 0x5c, 0x2a, 0x30, 0xe7, 0xd6,
  0xf3, 0x13, 0xe1, 0x01, 0x10, 0xce, 0x29, 0xd6, 0x17, 0x17, 0x11, 0x02,
  0xf3, 0x9d, 0x16, 0x07, 0x0e, 0x0c, 0x95, 0xd4, 0x32, 0x34, 0x48, 0x05,
  0xcc, 0x47, 0x19, 0x1f, 0x0b, 0x63, 0x38, 0x0c, 0xed, 0x62, 0x3c, 0x2c,
  0xfd, 0x3e, 0x0f, 0x2c, 0x38, 0x4b, 0x26, 0xfa, 0x15, 0xe1, 0x01, 0x09,
  0x04, 0x07, 0x51, 0x39, 0x27, 0x05, 0x5b, 0x3d, 0xe4, 0x0a, 0xef, 0x10,
  0x48, 0x01, 0xec, 0x07, 0x17, 0xfb, 0x08, 0x64, 0x0d, 0x09, 0x05, 0x2c,
  0xf8, 0x2a, 0x26, 0xf7, 0x0e, 0xe1, 0x0d, 0x25, 0xe1, 0x07, 0x18, 0x3c,
  0xb1, 0x7a, 0xb3, 0x00, 0x9a, 0xb2, 0xbc, 0x07, 0x3b, 0xb4, 0x81, 0x12,
  0xe3, 0xc2, 0xd3, 0xbb, 0xeb, 0x0f, 0xeb, 0xa4, 0x99, 0x17, 0xd0, 0xee,
  0xe2, 0x37, 0x1f, 0x90, 0xa1, 0xee, 0x55, 0xb5, 0xf3, 0xac, 0xfb, 0xd1,
  0xc3, 0xb5, 0xda, 0xa6, 0xbd, 0xee, 0xc4, 0x01, 0x0d, 0x2a, 0x5e, 0xcd,
  0x16, 0x64, 0x48, 0x36, 0x1b, 0x1d, 0x22, 0xf7, 0x31, 0x4d, 0x07, 0x38,
  0x06, 0x2f, 0xea, 0x00, 0x1d, 0x56, 0x27, 0x22, 0x00, 0xf8, 0xe0, 0xdf,
  0xe7, 0xca, 0xf5, 0x02, 0x16, 0x2d, 0xd2, 0x1b, 0xee, 0xfb, 0xfb, 0x16,
  0xfb, 0x07, 0xea, 0xfb, 0xee, 0xfe, 0x1a, 0x21, 0x23, 0xfa, 0xf8, 0xe6,
  0x0f, 0x2a, 0x05, 0xfe, 0x01, 0x04, 0xca, 0xd3, 0xfb, 0xf2, 0xfe, 0x0c,
  0xf3, 0x1b, 0xc6, 0x1c, 0xbd, 0xf1, 0xcc, 0xcb, 0x98, 0xc4, 0xb5, 0x16,
  0xf9, 0x7f, 0xbc, 0xeb, 0xd4, 0x88, 0xdc, 0xc0, 0x0b, 0xf2, 0x27, 0xc6,
  0x0c, 0x21, 0x1c, 0x31, 0xeb, 0x4d, 0x23, 0x3d, 0x0f, 0x03, 0x3e, 0xe0,
  0xfb, 0x33, 0xd3, 0xfb, 0xe4, 0xf7, 0xa0, 0xde, 0xcc, 0xe1, 0xd6, 0xd8,
  0xdd, 0x2a, 0xb9, 0xfb, 0xe4, 0x87, 0xe8, 0xd2, 0xc9, 0xe1, 0x28, 0x25,
  0x2b, 0x4e, 0x06, 0xf4, 0xfa, 0xc6, 0x73, 0x12, 0x0b, 0x18, 0xf3, 0x00,
  0x32, 0x30, 0x32, 0x0b, 0xf7, 0xf0, 0xfd, 0x3b, 0x2d, 0x25, 0x43, 0x07,
  0x1e, 0x02, 0xfa, 0x3e, 0xd4, 0x10, 0xf0, 0x00, 0x02, 0x04, 0x1a, 0xd1,
  0x0c, 0xd3, 0xd2, 0x0b, 0x31, 0x46, 0xef, 0x11, 0x0d, 0x34, 0x36, 0x57,
  0x01, 0x23, 0x44, 0xfe, 0x1f, 0x34, 0x08, 0xfb, 0x19, 0x2c, 0x33, 0xda,
  0xc6, 0x28, 0x06, 0x19, 0xdf, 0xec, 0x27, 0xfc, 0x81, 0x09, 0xe1, 0xdf,
  0x15, 0x52, 0xf0, 0x46, 0xe6, 0xec, 0xdf, 0xd1, 0xf5, 0xca, 0xc8, 0xc1,
  0xe9, 0x06, 0x2d, 0x33, 0xd5, 0x52, 0x13, 0x45, 0xf0, 0xfe, 0x0a, 0x0b,
  0xd7, 0xea, 0x0d, 0xbd, 0xe2, 0xf1, 0x37, 0x0d, 0x11, 0x5c, 0x18, 0x5f,
  0xcd, 0x10, 0x25, 0x36, 0xfa, 0xe5, 0x2e, 0xfe, 0xae, 0xea, 0x5b, 0x24,
  0xe1, 0x13, 0xde, 0x1e, 0x0f, 0x01, 0x25, 0xfc, 0x42, 0x2e, 0x06, 0x21,
  0xca, 0xd1, 0x36, 0xe7, 0x06, 0x0b, 0xfd, 0xf3, 0x2e, 0x0e, 0xf3, 0xcf,
  0xf1, 0xc6, 0x00, 0x27, 0x23, 0x43, 0xdf, 0x08, 0x14, 0xf8, 0x0b, 0xdd,
  0xeb, 0x03, 0x06, 0x17, 0xed, 0xb2, 0x1d, 0xd5, 0xd5, 0xeb, 0x24, 0x03,
  0xff, 0x08, 0x21, 0xf1, 0x05, 0x0f, 0xe8, 0x06, 0xfb, 0xfd, 0x04, 0x07,
  0x15, 0x03, 0xfd, 0x17, 0x18, 0x38, 0x03, 0x50, 0x16, 0x02, 0xfb, 0xee,
  0x1a, 0x81, 0xf0, 0x02, 0xed, 0x12, 0xda, 0x0d, 0xd5, 0xf3, 0x1a, 0x26,
  0x14, 0xee, 0xf6, 0xe6, 0x16, 0xd0, 0xf8, 0x03, 0xf1, 0x2f, 0xe9, 0x21,
  0xf9, 0xdb, 0x03, 0xcd, 0x07, 0xf3, 0x1a, 0xe8, 0x0f, 0x09, 0xf0, 0xef,
  0x19, 0xcb, 0x18, 0xf9, 0xe1, 0xe8, 0xca, 0x16, 0x3e, 0xdd, 0xff, 0xfa,
  0x2f, 0xcf, 0xd3, 0x43, 0x3e, 0xa5, 0xb4, 0x0e, 0xde, 0xfc, 0xf7, 0x04,
  0x00, 0x09, 0x06, 0x08, 0x32, 0xe4, 0x08, 0x3c, 0x52, 0x00, 0xf9, 0x09,
  0xec, 0xcd, 0xeb, 0x04, 0x04, 0x15, 0xfc, 0x14, 0x25, 0x2a, 0x01, 0x32,
  0x3c, 0xff, 0xf4, 0x1d, 0x0f, 0xd5, 0xfb, 0xe6, 0x17, 0x2b, 0xf9, 0xe9,
  0x0a, 0xf4, 0x06, 0x3f, 0x4e, 0xa7, 0xcc, 0xeb, 0xff, 0xec, 0x17, 0xeb,
  0x0e, 0x07, 0x25, 0x30, 0x06, 0xf9, 0x01, 0x0c, 0xef, 0x03, 0x09, 0xe8,
  0xf7, 0x26, 0x23, 0x46, 0x05, 0x1b, 0xf3, 0xed, 0xef, 0xc2, 0x19, 0x14,
  0x10, 0x1a, 0xf7, 0x2b, 0xfa, 0x40, 0xc9, 0x37, 0x08, 0xf8, 0xdd, 0xb9,
  0x12, 0x13, 0xd9, 0x01, 0xf6, 0xf2, 0xc4, 0xe7, 0xea, 0x40, 0xf4, 0x33,
  0xf5, 0xcd, 0xd8, 0xf5, 0x03, 0x1a, 0xdb, 0xc5, 0xe6, 0xe7, 0xcb, 0x0f,
  0xd9, 0x07, 0x03, 0xff, 0x9e, 0xe0, 0xd6, 0x2b, 0xf1, 0x0f, 0xc6, 0xbd,
  0xb9, 0xee, 0xc4, 0xe0, 0xe0, 0xd0, 0x04, 0x8e, 0xfd, 0x0c, 0x59, 0x38,
  0xe7, 0xff, 0x0c, 0xf6, 0xde, 0x2f, 0x35, 0xe6, 0x12, 0x09, 0x21, 0xd0,
  0x0b, 0x05, 0x26, 0xe9, 0x05, 0x04, 0x2e, 0x1f, 0xe9, 0x24, 0x69, 0x06,
  0x0b, 0xf3, 0xf7, 0x3d, 0xe7, 0xe0, 0x21, 0x18, 0x25, 0xf2, 0x06, 0xfd,
  0xd5, 0x0c, 0x46, 0x25, 0x2a, 0x7f, 0x1e, 0x59, 0x21, 0x25, 0xe8, 0xd3,
  0x0e, 0x13, 0x17, 0xf5, 0x1f, 0x15, 0x37, 0x32, 0x37, 0x47, 0x03, 0x45,
  0x09, 0xee, 0x04, 0xec, 0x06, 0xd7, 0xe4, 0x1e, 0xf2, 0xc7, 0x15, 0xee,
  0x1c, 0xb6, 0x1c, 0xef, 0x21, 0xfc, 0xfb, 0xdb, 0x31, 0xd4, 0xdc, 0x04,
  0x09, 0xe7, 0xa0, 0xea, 0xf5, 0xc1, 0x1f, 0xa5, 0x2b, 0x41, 0x17, 0x23,
  0x2e, 0x28, 0x20, 0x2c, 0x0a, 0xef, 0x03, 0x1f, 0x4a, 0xf5, 0x04, 0xab,
  0x26, 0x39, 0xed, 0x28, 0x39, 0x23, 0xf3, 0x14, 0xdd, 0xde, 0x24, 0x1f,
  0xe7, 0xf0, 0x31, 0x1c, 0x19, 0x33, 0xd7, 0xe6, 0x2f, 0xa8, 0x28, 0x15,
  0x1c, 0xd4, 0x81, 0x0c, 0x0f, 0xc3, 0xfa, 0xb9, 0x14, 0x2f, 0xe7, 0x2d,
  0x10, 0xeb, 0x30, 0x32, 0x22, 0xd7, 0xfc, 0x0b, 0x15, 0xfc, 0x17, 0x48,
  0x10, 0x08, 0xb4, 0xcf, 0xff, 0x83, 0xf8, 0xf4, 0xbe, 0xf5, 0xf7, 0x11,
  0x09, 0x9f, 0x31, 0xd7, 0x02, 0x2c, 0x2c, 0xd6, 0x13, 0x27, 0x38, 0xf5,
  0x05, 0x10, 0xec, 0xd3, 0xfb, 0xbf, 0x03, 0xe2, 0x29, 0x08, 0x14, 0x31,
  0xf3, 0xbf, 0x30, 0x12, 0xed, 0x1b, 0x09, 0x15, 0xe9, 0x09, 0xde, 0xaf,
  0xf8, 0xfc, 0x0f, 0xea, 0xe6, 0xcb, 0xee, 0xec, 0xe1, 0xf7, 0x82, 0x1f,
  0x07, 0x5b, 0xe1, 0x00, 0x24, 0xdd, 0x08, 0xca, 0x0e, 0x99, 0xf1, 0xea,
  0xd9, 0x2a, 0xf2, 0xe3, 0x21, 0x21, 0x23, 0x40, 0x19, 0x1f, 0x3b, 0xde,
  0xff, 0xc9, 0x23, 0x01, 0xec, 0x3a, 0xf0, 0x24, 0xd9, 0x25, 0xe9, 0x13,
  0xe7, 0x16, 0xdf, 0x01, 0xd3, 0x09, 0x0f, 0xf1, 0x0a, 0x34, 0xbb, 0xe8,
  0xe9, 0x7f, 0xdb, 0x43, 0xe2, 0x10, 0xea, 0xff, 0xc3, 0x13, 0xe6, 0x11,
  0x2a, 0xe9, 0x95, 0xe2, 0xc6, 0x45, 0xf6, 0x39, 0xa3, 0xb2, 0xd3, 0x17,
  0xda, 0x05, 0xc2, 0xc7, 0x9e, 0xb2, 0xe1, 0xb4, 0x07, 0x34, 0x29, 0xe7,
  0xf6, 0x0a, 0xe4, 0x0b, 0x05, 0x17, 0xe3, 0xc6, 0xdc, 0xf8, 0x0e, 0x05,
  0xcd, 0xc4, 0x2d, 0xc2, 0xc9, 0xf1, 0x24, 0x43, 0x10, 0x54, 0x15, 0x03,
  0x02, 0x00, 0x69, 0xd5, 0x35, 0xe4, 0x31, 0x00, 0x1f, 0x52, 0x21, 0x3f,
  0xe8, 0xf4, 0x2d, 0x21, 0xed, 0x08, 0x6c, 0x28, 0x1d, 0xf3, 0x1b, 0x0d,
  0xc4, 0xf6, 0x03, 0x05, 0x07, 0x9e, 0x09, 0xd8, 0xe7, 0x27, 0xff, 0x0e,
  0xea, 0xcc, 0xe3, 0xf1, 0xed, 0xe7, 0xe4, 0xe6, 0x13, 0xb9, 0xdc, 0xf6,
  0xfd, 0xde, 0xfe, 0xf4, 0xe7, 0xe1, 0xf0, 0xcc, 0x03, 0xe6, 0x0d, 0xd9,
  0x05, 0xe5, 0xfc, 0x0b, 0xf1, 0xe9, 0xe7, 0x01, 0x31, 0x09, 0x00, 0x05,
  0x19, 0x04, 0xf9, 0xfa, 0x2b, 0x12, 0xfe, 0x10, 0x31, 0xf4, 0xd3, 0x28,
  0x00, 0xc9, 0x02, 0xf3, 0x23, 0x10, 0x20, 0xfa, 0x1a, 0xb3, 0x16, 0x21,
  0xfe, 0x2b, 0xcf, 0x16, 0xfd, 0xe0, 0xfe, 0xdd, 0x25, 0xff, 0x01, 0xe5,
  0xf7, 0x88, 0x29, 0x23, 0x17, 0x1d, 0xc8, 0x1e, 0x23, 0xe0, 0x08, 0xf0,
  0x24, 0x15, 0x09, 0x29, 0x14, 0xb8, 0x1f, 0x03, 0x1b, 0x08, 0xef, 0x15,
  0x26, 0xd4, 0x21, 0x05, 0x02, 0x1e, 0x14, 0x2d, 0x16, 0x13, 0x18, 0x20,
  0xe3, 0xbe, 0xde, 0xef, 0x24, 0x07, 0x2d, 0xe5, 0x0b, 0x2a, 0x10, 0x2a,
  0x21, 0xd2, 0x0a, 0x05, 0xf5, 0x05, 0xdf, 0xf8, 0x25, 0x43, 0xf6, 0x26,
  0x1b, 0xf2, 0xea, 0xb2, 0xfe, 0xba, 0xf5, 0xde, 0x07, 0xe1, 0x81, 0x09,
  0x30, 0x37, 0x37, 0x4a, 0x1f, 0x28, 0x30, 0x00, 0x0a, 0x16, 0x30, 0x11,
  0xed, 0x30, 0x4a, 0x05, 0x0f, 0x63, 0x10, 0x49, 0x1d, 0x16, 0xdd, 0xd8,
  0x45, 0x15, 0xeb, 0x33, 0x0b, 0xcd, 0xf2, 0x2b, 0xfc, 0x29, 0x07, 0x2b,
  0x38, 0x23, 0xf5, 0x22, 0x25, 0x0c, 0x0f, 0x46, 0x4a, 0x17, 0xbe, 0x13,
  0x07, 0x40, 0x05, 0x3a, 0xb2, 0xc4, 0x96, 0xfc, 0xba, 0xfb, 0xe7, 0xd1,
  0xb3, 0xc0, 0xd7, 0xf2, 0xc9, 0xfa, 0xb9, 0xd8, 0x8b, 0x8d, 0xb9, 0xd6,
  0xa0, 0x20, 0xc1, 0xa9, 0x81, 0xaa, 0xae, 0xa2, 0xbe, 0xf9, 0xec, 0xfb,
  0xce, 0xf5, 0xce, 0xf5, 0xf9, 0x48, 0xc7, 0xfe, 0xbe, 0x9f, 0xea, 0xe4,
  0xd8, 0xa0, 0xef, 0xe3, 0x23, 0xe7, 0x41, 0x40, 0x07, 0xe6, 0xfe, 0x25,
  0x0f, 0x1c, 0x16, 0xf1, 0x03, 0xd3, 0x2b, 0xbc, 0x45, 0x35, 0x40, 0x50,
  0x13, 0xef, 0x2b, 0x2a, 0x20, 0x3f, 0x4e, 0xff, 0xf6, 0xef, 0x09, 0x17,
  0x10, 0x0e, 0x1f, 0xfe, 0xfd, 0x16, 0x0b, 0x25, 0x07, 0x38, 0xf6, 0xf0,
  0xf7, 0xf0, 0x20, 0xf3, 0x0a, 0x08, 0xfa, 0xf8, 0xee, 0x22, 0x21, 0x04,
  0xf8, 0x1b, 0x09, 0xef, 0xf5, 0x25, 0x18, 0x00, 0xfa, 0x19, 0x0d, 0x16,
  0xe5, 0x04, 0x0c, 0xf7, 0x05, 0xe1, 0x4d, 0x25, 0x0e, 0x28, 0x15, 0xff,
  0xd7, 0xf7, 0x22, 0x2d, 0x12, 0xce, 0x15, 0x0e, 0x0a, 0xe6, 0xde, 0xe7,
  0x0c, 0x3b, 0x24, 0xef, 0x25, 0x34, 0x3c, 0x0b, 0x08, 0xc4, 0x2b, 0x12,
  0x08, 0x34, 0x27, 0x16, 0x0b, 0xef, 0xee, 0x39, 0x11, 0xfe, 0xe6, 0xe8,
  0x0d, 0xb1, 0xe2, 0xfd, 0x18, 0x23, 0x00, 0x25, 0x0d, 0xfa, 0x34, 0x29,
  0x1f, 0x26, 0x27, 0x1a, 0x07, 0x06, 0x2e, 0x13, 0x1c, 0x0e, 0x19, 0x10,
  0xe1, 0x58, 0xca, 0x1a, 0xeb, 0xfd, 0xb5, 0xc8, 0xd2, 0xfb, 0xe6, 0x02,
  0x0a, 0x21, 0x99, 0xb0, 0xc7, 0x1c, 0xd4, 0x27, 0xf3, 0xd3, 0xdd, 0xa1,
  0x11, 0xc0, 0xbf, 0xf5, 0xf4, 0xfc, 0xa5, 0xed, 0xf9, 0x1b, 0xc7, 0x2c,
  0xd8, 0xda, 0xc1, 0xd8, 0x24, 0x1a, 0xc1, 0xd6, 0x08, 0xd8, 0x81, 0xe6,
  0xf5, 0x7f, 0x1a, 0x44, 0xed, 0xe3, 0x00, 0xfb, 0xf5, 0xe3, 0xf8, 0xdd,
  0xf7, 0x93, 0xc3, 0x18, 0x27, 0x43, 0xd7, 0xff, 0xc4, 0x0b, 0xfb, 0xd8,
  0x14, 0x1e, 0x13, 0xe1, 0xd7, 0xd1, 0xeb, 0xeb, 0x27, 0xf8, 0x4d, 0x16,
  0xf7, 0x1e, 0x03, 0x68, 0x27, 0xbf, 0x1f, 0xc4, 0xf1, 0x29, 0xe7, 0x2c,
  0xc1, 0xce, 0xbb, 0xda, 0x05, 0xd3, 0xf4, 0xde, 0xd8, 0x63, 0xf9, 0x09,
  0x09, 0xff, 0xec, 0xb7, 0x10, 0x3d, 0x0b, 0xf3, 0xce, 0x0c, 0x11, 0x31,
  0xc2, 0xe7, 0x25, 0x0e, 0xac, 0x2b, 0x39, 0xcf, 0x2d, 0x63, 0xd9, 0x6d,
  0xdf, 0xdf, 0xf5, 0xb5, 0x3e, 0x98, 0xec, 0xcf, 0xc2, 0xf0, 0x3e, 0x2c,
  0x0f, 0xa2, 0x28, 0xba, 0xea, 0x07, 0x05, 0x26, 0x11, 0x5d, 0x24, 0x0e,
  0xe2, 0x16, 0x27, 0x1d, 0x4b, 0x4f, 0x04, 0x54, 0x35, 0x07, 0x21, 0x4e,
  0xce, 0xd0, 0xf0, 0x02, 0xd7, 0x11, 0x7d, 0x0d, 0xf1, 0xee, 0xed, 0xfc,
  0xba, 0xe6, 0xd1, 0xbf, 0x22, 0x02, 0xa8, 0xc7, 0xfb, 0x93, 0xa7, 0x2d,
  0xd4, 0x08, 0xd3, 0x3b, 0xfd, 0xdc, 0xeb, 0xe4, 0x18, 0xb7, 0xce, 0xe8,
  0xe9, 0xe8, 0xdd, 0x00, 0xf6, 0xcb, 0xc4, 0xcd, 0x1e, 0xe1, 0x0c, 0x0b,
  0x26, 0xc7, 0xdc, 0xe8, 0x03, 0xe6, 0xf7, 0xdf, 0x9c, 0xa4, 0xb1, 0x86,
  0xe1, 0xca, 0x0b, 0xdb, 0xa8, 0xb5, 0xb3, 0xe3, 0x24, 0x3f, 0x81, 0xb3,
  0x10, 0xc8, 0x3a, 0xeb, 0x15, 0x1c, 0x2c, 0x57, 0x18, 0x1b, 0x1a, 0x0a,
  0x29, 0x05, 0x23, 0x36, 0xee, 0xe4, 0xff, 0xdd, 0x18, 0x01, 0x0b, 0xca,
  0x04, 0x08, 0x17, 0x23, 0xfd, 0xfc, 0x1f, 0xe5, 0xf2, 0xb8, 0xde, 0xa7,
  0x1c, 0xef, 0x21, 0x1b, 0x10, 0x1c, 0xdb, 0x37, 0x01, 0xf2, 0x0a, 0xf5,
  0x40, 0x08, 0x3a, 0xeb, 0x22, 0x47, 0x1e, 0x39, 0x48, 0x7a, 0x38, 0x1b,
  0xfc, 0x18, 0x3b, 0x26, 0x0f, 0xf5, 0x27, 0xe3, 0x24, 0xfc, 0xe1, 0xb6,
  0xc5, 0x47, 0xe8, 0xfa, 0x16, 0x1e, 0xdb, 0xfb, 0x0b, 0xcc, 0x2f, 0xfe,
  0xf1, 0x00, 0x18, 0x1b, 0x49, 0x69, 0x0d, 0x00, 0xe1, 0xc7, 0x3c, 0x09,
  0x2b, 0x12, 0xfd, 0xd6, 0x2a, 0x0a, 0xfa, 0x15, 0x2c, 0x2f, 0xf5, 0xe7,
  0x22, 0xf9, 0x1d, 0xe1, 0x21, 0x05, 0xee, 0x28, 0x22, 0xee, 0xd4, 0xe9,
  0x25, 0xdb, 0xee, 0x1d, 0x27, 0xde, 0x23, 0x36, 0x14, 0x09, 0xe7, 0xe0,
  0x05, 0xd1, 0xe9, 0x02, 0x06, 0xe3, 0xcf, 0xe7, 0x36, 0xe9, 0xdc, 0xe3,
  0xec, 0x00, 0xf0, 0x11, 0xf6, 0xda, 0xdd, 0xdd, 0x1c, 0x28, 0xe8, 0xd6,
  0xed, 0x1c, 0x2a, 0xee, 0xe6, 0x0d, 0xf5, 0x0c, 0x13, 0xeb, 0x10, 0x28,
  0x0d, 0x4f, 0x0b, 0x20, 0x1d, 0xe6, 0x16, 0x1f, 0x10, 0xde, 0x07, 0xf2,
  0x4e, 0x14, 0x2b, 0x13, 0xe8, 0x1a, 0x2e, 0x1e, 0x20, 0x1c, 0x23, 0x11,
  0xdb, 0xfd, 0x09, 0xd2, 0x41, 0x26, 0x0b, 0xe7, 0xf8, 0x44, 0xe2, 0xfb,
  0xfc, 0x37, 0x0c, 0xe9, 0xc3, 0xd0, 0xb1, 0x99, 0x81, 0xa4, 0x8e, 0xce,
  0xf5, 0x5a, 0xc7, 0xa1, 0xc5, 0x90, 0xe7, 0xb1, 0x14, 0xfa, 0x09, 0x09,
  0x25, 0x17, 0xf8, 0x3a, 0x10, 0x2b, 0x34, 0xfb, 0xf6, 0xfd, 0x4a, 0x0b,
  0x2d, 0xd9, 0x22, 0xf4, 0x02, 0x1e, 0x01, 0x3c, 0x26, 0x59, 0x1f, 0xf5,
  0x11, 0x07, 0x2d, 0x1c, 0x28, 0x1a, 0x23, 0xeb, 0x12, 0x33, 0x10, 0x41,
  0xee, 0x47, 0xfe, 0x04, 0x1a, 0x0f, 0x3b, 0xf1, 0xdb, 0x12, 0xd8, 0xf9,
  0x92, 0xc6, 0xaa, 0x61, 0xf1, 0x36, 0xee, 0xc4, 0xd3, 0xdf, 0x09, 0xdc,
  0x41, 0x30, 0x1b, 0xff, 0xf7, 0x10, 0x3f, 0x1c, 0x10, 0x7f, 0x3f, 0xef,
  0xc7, 0xef, 0x7f, 0x1b, 0x28, 0x63, 0xff, 0x20, 0x05, 0xe6, 0xcf, 0xbf,
  0xbb, 0x2e, 0xe6, 0xc8, 0xeb, 0x1b, 0xd9, 0xe8, 0xbf, 0x24, 0xbc, 0xfa,
  0xa6, 0xcb, 0xbd, 0x02, 0x97, 0xec, 0xbe, 0xa6, 0xac, 0x04, 0xcb, 0x97,
  0x2a, 0xfa, 0x0e, 0x25, 0xfb, 0x2e, 0x07, 0x04, 0xed, 0xe1, 0x06, 0x11,
  0xfe, 0xed, 0x5d, 0x09, 0xd8, 0x36, 0xce, 0xfa, 0xd4, 0xe3, 0x9f, 0xac,
  0xca, 0x21, 0xb0, 0xc1, 0xea, 0xf9, 0xc2, 0xb9, 0xa7, 0x37, 0xac, 0x34,
  0xfb, 0xd3, 0xfb, 0x08, 0xdf, 0xd2, 0xba, 0x01, 0x01, 0x1a, 0xe1, 0xc3,
  0x2a, 0xf2, 0x4d, 0x14, 0xff, 0x39, 0x07, 0x0d, 0x1f, 0x41, 0x47, 0x1b,
  0xf4, 0xf1, 0x0e, 0x41, 0x32, 0x25, 0x0d, 0x1f, 0x1d, 0x35, 0xe8, 0x26,
  0xdc, 0x06, 0x1d, 0x10, 0x06, 0x30, 0x23, 0x1a, 0xb0, 0x05, 0xd5, 0x1c,
  0xb6, 0xc5, 0xc3, 0xee, 0xc2, 0xc8, 0xa8, 0xd8, 0xba, 0xe3, 0x94, 0xb2,
  0x1d, 0xf7, 0x3c, 0x0d, 0xf0, 0x19, 0x13, 0x2e, 0x10, 0x59, 0x30, 0x0c,
  0x01, 0x13, 0x3a, 0x09, 0x19, 0x20, 0x34, 0xf1, 0xfd, 0x11, 0xee, 0x22,
  0xc4, 0x40, 0x09, 0xeb, 0xe1, 0x49, 0x0e, 0xf7, 0xb6, 0x10, 0xcd, 0xe7,
  0xa6, 0xb2, 0xb8, 0x18, 0x91, 0xe3, 0xb7, 0x96, 0xb1, 0xf7, 0x81, 0x98,
  0x15, 0xc3, 0x22, 0x37, 0x1e, 0x29, 0x06, 0x1b, 0x04, 0x6d, 0x1a, 0x25,
  0x1e, 0x29, 0x33, 0x32, 0x11, 0x04, 0x32, 0xf0, 0x29, 0x1f, 0x20, 0x5b,
  0x03, 0x4c, 0x13, 0x0d, 0xf8, 0x04, 0x31, 0x1c, 0xdc, 0xdc, 0xfe, 0xed,
  0xca, 0xba, 0xd0, 0x04, 0x85, 0x16, 0xcf, 0xab, 0x9e, 0xde, 0x95, 0xa4,
  0xe2, 0x41, 0xea, 0xf7, 0xd8, 0xf7, 0xcc, 0xde, 0xc5, 0x0e, 0xf5, 0xe4,
  0xe4, 0xf4, 0xe7, 0x05, 0xe7, 0x72, 0xd6, 0x40, 0xfb, 0xc9, 0xc2, 0x11,
  0x14, 0x37, 0xdc, 0x0e, 0x30, 0xd7, 0xea, 0xc8, 0xec, 0x25, 0xfb, 0x27,
  0xf0, 0xf3, 0xf5, 0xfd, 0x12, 0x18, 0xf3, 0x17, 0xfa, 0x81, 0xf6, 0xd5,
  0xff, 0xf1, 0x33, 0xfc, 0xf5, 0x15, 0x17, 0x1c, 0x04, 0x02, 0x3b, 0xe0,
  0xd8, 0x50, 0xe0, 0xee, 0x25, 0x1c, 0x20, 0xfe, 0xf8, 0x03, 0xfa, 0x0d,
  0xd2, 0x4c, 0x05, 0xe3, 0xe7, 0x0e, 0xf9, 0xfb, 0x08, 0x1a, 0xf4, 0xe0,
  0x02, 0xfe, 0x0f, 0x15, 0xa1, 0x3c, 0x20, 0xef, 0xc7, 0x09, 0xe0, 0xef,
  0x1f, 0xfc, 0x41, 0xfb, 0xd1, 0x1c, 0xff, 0x38, 0xea, 0x65, 0x32, 0x0a,
  0xd6, 0x0a, 0xd9, 0x04, 0x1f, 0x12, 0x49, 0x2a, 0x01, 0x4c, 0x12, 0x5f,
  0x11, 0x1b, 0x4b, 0x04, 0xdd, 0x31, 0x7f, 0x35, 0xf5, 0x14, 0xe4, 0x1a,
  0xf7, 0x0b, 0xcf, 0xde, 0x8f, 0xf0, 0x0d, 0xcd, 0xca, 0x29, 0xd2, 0xf8,
  0x09, 0xdc, 0xef, 0xe0, 0x29, 0xea, 0x11, 0x1e, 0x1c, 0xd9, 0x1e, 0x06,
  0x20, 0xf9, 0xfa, 0xe6, 0x0a, 0xff, 0xe5, 0xe9, 0x25, 0x14, 0x06, 0xf7,
  0x23, 0xe3, 0xf1, 0x1d, 0x4a, 0x1e, 0x00, 0xe6, 0x05, 0x0c, 0x14, 0xee,
  0x2a, 0x10, 0xfe, 0xfd, 0x26, 0xc6, 0x09, 0x02, 0x26, 0x02, 0xec, 0x11,
  0x2e, 0x3d, 0x0e, 0x2b, 0xec, 0x18, 0xee, 0xfb, 0x11, 0xe9, 0x21, 0x1b,
  0x0a, 0xf3, 0x17, 0xf1, 0x1c, 0x78, 0x04, 0x57, 0x25, 0xf1, 0xe9, 0xa1,
  0x1f, 0xaa, 0x02, 0x03, 0x24, 0xc9, 0x93, 0x1d, 0x07, 0x23, 0xf9, 0x27,
  0x14, 0xfb, 0x11, 0xa4, 0x1a, 0xdb, 0xeb, 0x1f, 0x30, 0xd7, 0xaf, 0xf9,
  0xf0, 0xf5, 0xfc, 0xe2, 0x0b, 0x1a, 0xf2, 0x3f, 0xed, 0xe6, 0x07, 0xf4,
  0xee, 0x22, 0xe7, 0xf5, 0xdc, 0xfd, 0xd3, 0xf9, 0x18, 0xeb, 0xef, 0xc0,
  0xff, 0x9b, 0xfb, 0xf4, 0x00, 0x09, 0x81, 0xdd, 0xdb, 0xfd, 0xe8, 0xf8,
  0xde, 0xdf, 0xea, 0xee, 0xce, 0x0d, 0xda, 0xe4, 0x06, 0xcb, 0xe3, 0xe1,
  0x25, 0xb7, 0x07, 0xfd, 0x28, 0xfd, 0x23, 0x17, 0x2c, 0x3b, 0x15, 0xfb,
  0xfc, 0xf3, 0x0e, 0x2d, 0x0c, 0x15, 0xe5, 0xed, 0xf4, 0xf3, 0xd2, 0xf5,
  0xce, 0xf7, 0xd1, 0x15, 0x2b, 0xde, 0xdb, 0xdf, 0xcc, 0x23, 0xc7, 0xd3,
  0xea, 0xe9, 0xeb, 0x11, 0xde, 0xe3, 0xe2, 0xe0, 0x12, 0xd9, 0xe4, 0xaf,
  0x16, 0xce, 0x21, 0xd7, 0x05, 0x10, 0xf4, 0x16, 0x19, 0x4a, 0x0a, 0xfd,
  0xdd, 0xe8, 0x07, 0x12, 0x07, 0xa5, 0xf1, 0xba, 0xfc, 0xe5, 0xed, 0x23,
  0xfc, 0x48, 0xef, 0x16, 0x34, 0xed, 0x17, 0xd4, 0xd9, 0x1f, 0x05, 0x06,
  0x08, 0xd8, 0xf9, 0x3a, 0xf9, 0xd0, 0xf6, 0x0f, 0x19, 0xdf, 0xeb, 0x0f,
  0x2f, 0xce, 0x2f, 0x09, 0xff, 0x19, 0xfd, 0x04, 0xfa, 0x7f, 0x2c, 0x13,
  0xf1, 0x2b, 0x09, 0xfd, 0x21, 0x0c, 0x1c, 0xf7, 0x03, 0x3b, 0x19, 0x2e,
  0x16, 0x44, 0x25, 0xfb, 0x12, 0xe3, 0x10, 0x02, 0x0b, 0xee, 0x14, 0x0a,
  0x23, 0x31, 0x0f, 0x1d, 0x0b, 0x30, 0x37, 0x28, 0x13, 0x10, 0xc8, 0x09,
  0x82, 0xea, 0xff, 0xff, 0x04, 0x00, 0x00, 0x00, 0x80, 0x00, 0x00, 0x00,
  0xb0, 0x02, 0x00, 0x00, 0x51, 0x00, 0x00, 0x00, 0x70, 0xfd, 0xff, 0xff,
  0x0f, 0xff, 0xff, 0xff, 0xa0, 0x01, 0x00, 0x00, 0x94, 0xfb, 0xff, 0xff,
  0x43, 0x02, 0x00, 0x00, 0xbf, 0xfe, 0xff, 0xff, 0xba, 0xff, 0xff, 0xff,
  0x2c, 0x01, 0x00, 0x00, 0xb7, 0xff, 0xff, 0xff, 0x50, 0xff, 0xff, 0xff,
  0xea, 0xff, 0xff, 0xff, 0xa0, 0xfd, 0xff, 0xff, 0xac, 0x02, 0x00, 0x00,
  0x62, 0xff, 0xff, 0xff, 0x8c, 0x00, 0x00, 0x00, 0x61, 0xff, 0xff, 0xff,
  0xc2, 0x00, 0x00, 0x00, 0x14, 0xfd, 0xff, 0xff, 0xcc, 0x00, 0x00, 0x00,
  0x25, 0xfe, 0xff, 0xff, 0x7d, 0x01, 0x00, 0x00, 0x7f, 0x00, 0x00, 0x00,
  0xd1, 0x00, 0x00, 0x00, 0x10, 0xfd, 0xff, 0xff, 0x77, 0x00, 0x00, 0x00,
  0x2f, 0x03, 0x00, 0x00, 0xc8, 0x01, 0x00, 0x00, 0xa8, 0x03, 0x00, 0x00,
  0x13, 0x01, 0x00, 0x00, 0xa4, 0x02, 0x00, 0x00, 0x0e, 0xeb, 0xff, 0xff,
  0x04, 0x00, 0x00, 0x00, 0x00, 0x14, 0x00, 0x00, 0x18, 0xd6, 0xfc, 0xd8,
  0x00, 0xc8, 0x09, 0xef, 0x27, 0xc7, 0xf8, 0xe9, 0xf6, 0xec, 0xea, 0xd4,
  0xf5, 0xd9, 0xef, 0xf2, 0x09, 0x11, 0x17, 0xc4, 0xd5, 0x1c, 0xc9, 0xf9,
  0xed, 0x2c, 0x05, 0x0b, 0xfb, 0x03, 0x03, 0xfa, 0x03, 0xf6, 0xd1, 0xe4,
  0xd4, 0xed, 0xcc, 0xeb, 0xee, 0xec, 0xf5, 0xa8, 0xbe, 0x17, 0xda, 0xdc,
  0xc0, 0xea, 0xd8, 0xd0, 0xcf, 0x07, 0x1b, 0xc5, 0xcb, 0xd3, 0xc2, 0xe9,
  0xf3, 0x07, 0x13, 0xf8, 0xc8, 0xf9, 0xdd, 0x19, 0xc1, 0xf4, 0x12, 0xdc,
  0xe8, 0xb4, 0xdc, 0xd7, 0xe9, 0xec, 0xe3, 0x01, 0xcd, 0x03, 0xe6, 0xe4,
  0xdf, 0x25, 0xd9, 0x0e, 0xf1, 0xf2, 0xcd, 0x11, 0x2a, 0xf8, 0x0d, 0xf8,
  0x34, 0xfc, 0xf6, 0x06, 0x05, 0x05, 0x11, 0xec, 0x23, 0xe0, 0x0d, 0xc7,
  0x0e, 0x1c, 0xf8, 0xfc, 0x08, 0xfc, 0xff, 0xdd, 0xfe, 0x0d, 0xf7, 0x0e,
  0xf2, 0xfc, 0xff, 0x06, 0x00, 0x15, 0x23, 0xdf, 0x10, 0x0c, 0x13, 0xf6,
  0x0b, 0xdd, 0xed, 0x2c, 0xe6, 0x0b, 0xdb, 0x04, 0x13, 0xf7, 0x00, 0x0e,
  0x11, 0xf3, 0xb1, 0x13, 0xec, 0x06, 0x14, 0x2f, 0x3f, 0x44, 0x2f, 0x43,
  0xc1, 0xe1, 0xb3, 0xd1, 0xba, 0xc2, 0x17, 0xc4, 0x30, 0x09, 0x26, 0xaf,
  0xaa, 0xcd, 0xe2, 0xfa, 0xf8, 0xe1, 0xea, 0x02, 0x01, 0xcc, 0x2a, 0xbb,
  0x2f, 0x32, 0x43, 0xc8, 0xc6, 0xdb, 0xf8, 0xff, 0x5f, 0xd2, 0x14, 0x04,
  0x1c, 0x1b, 0x07, 0xde, 0x42, 0xf9, 0xca, 0xe5, 0x3d, 0x0e, 0x1f, 0x40,
  0x25, 0xf9, 0x0d, 0x0f, 0x24, 0xf9, 0x86, 0x03, 0xe3, 0x08, 0x00, 0xfd,
  0xe1, 0x23, 0xc2, 0xfa, 0x37, 0xf9, 0xee, 0xe4, 0x09, 0xfa, 0x03, 0xe4,
  0x0a, 0x1d, 0x0a, 0xf9, 0x15, 0xef, 0xd9, 0x81, 0x0e, 0x00, 0xfc, 0xe4,
  0x09, 0x00, 0xf3, 0xc9, 0x10, 0xeb, 0x1a, 0x04, 0x03, 0x02, 0xf7, 0xf9,
  0x25, 0x13, 0xf6, 0xe8, 0xf3, 0x0e, 0x08, 0x1b, 0x24, 0x1c, 0xfb, 0x05,
  0x04, 0x0e, 0x0a, 0xfc, 0x2a, 0x14, 0x2d, 0xea, 0x1f, 0x05, 0x28, 0x23,
  0xf3, 0xdc, 0x02, 0x0f, 0x53, 0x15, 0x03, 0x1a, 0x33, 0x2c, 0x02, 0xe8,
  0xf0, 0xdd, 0x13, 0x18, 0xf8, 0xff, 0x1c, 0x0a, 0xe1, 0x00, 0x05, 0xf5,
  0x22, 0xeb, 0x3b, 0xf3, 0x06, 0xfb, 0x1a, 0x04, 0x06, 0xc8, 0xe2, 0x05,
  0xba, 0x3f, 0xff, 0x10, 0xfa, 0x04, 0x10, 0xf0, 0x4b, 0x0c, 0x34, 0x06,
  0x09, 0x34, 0xe8, 0xe9, 0x16, 0x0d, 0xfc, 0x1c, 0x24, 0xf9, 0x3f, 0x0e,
  0x11, 0xf6, 0x0d, 0x1d, 0x57, 0xfe, 0xe3, 0x39, 0x1b, 0x10, 0x0a, 0xf3,
  0x0e, 0xfc, 0xfb, 0xda, 0x17, 0x1d, 0x01, 0x03, 0xe6, 0x11, 0x02, 0x0e,
  0x09, 0x19, 0x1c, 0xe0, 0x15, 0xf6, 0xf3, 0xf9, 0xf8, 0xf4, 0xd4, 0x1a,
  0x06, 0x0a, 0x16, 0x11, 0xf8, 0x14, 0xf8, 0xff, 0x0f, 0x0a, 0xfc, 0xf3,
  0xe3, 0x0f, 0xff, 0x1e, 0x15, 0x24, 0xee, 0xf9, 0xe3, 0xfe, 0x0a, 0xeb,
  0x08, 0x10, 0xfb, 0xf3, 0x0a, 0xdb, 0x07, 0xfe, 0x16, 0x02, 0xde, 0x4e,
  0x47, 0x2e, 0xf4, 0x01, 0xeb, 0xf3, 0x03, 0xff, 0x14, 0x17, 0x18, 0x02,
  0x05, 0x13, 0x0c, 0x19, 0x0c, 0xf7, 0x0a, 0x0e, 0x15, 0x05, 0x0e, 0x0f,
  0x2b, 0xe4, 0x03, 0xf2, 0x10, 0xe8, 0xf1, 0xfd, 0xfe, 0x26, 0x0b, 0x15,
  0xf4, 0xff, 0xf8, 0xf8, 0xf8, 0x14, 0xff, 0x02, 0xec, 0x49, 0x06, 0x0b,
  0x0d, 0xf0, 0xeb, 0xfb, 0xf2, 0x1c, 0x1d, 0xf1, 0x3c, 0x0b, 0xf9, 0x0f,
  0x03, 0x11, 0x18, 0xff, 0x0c, 0x43, 0x01, 0x08, 0x09, 0x1d, 0xef, 0xc0,
  0x01, 0xca, 0x23, 0xd2, 0x12, 0xf3, 0x12, 0xef, 0x2d, 0xeb, 0x23, 0x27,
  0x05, 0xf6, 0x2e, 0xba, 0x0d, 0x05, 0x25, 0xf0, 0x22, 0xe3, 0x01, 0x1b,
  0x26, 0x0a, 0x06, 0xeb, 0xf1, 0xf2, 0xe5, 0xff, 0x04, 0xe7, 0x18, 0xeb,
  0xab, 0x02, 0x00, 0x11, 0xe5, 0xf8, 0x0a, 0xeb, 0xf7, 0x0f, 0xe2, 0xd5,
  0xfc, 0xad, 0xd6, 0xcd, 0xe4, 0x04, 0x08, 0x30, 0x2d, 0x01, 0x17, 0xf8,
  0x15, 0x0d, 0x0d, 0x0e, 0x04, 0x15, 0x0a, 0xf3, 0x23, 0xf0, 0x44, 0x0c,
  0x16, 0x06, 0xbc, 0x40, 0x0c, 0x17, 0xfc, 0xf6, 0x00, 0x03, 0xb3, 0xd2,
  0x1c, 0x1c, 0x4a, 0x23, 0x2e, 0x1f, 0xee, 0xf9, 0x0a, 0xd1, 0xf8, 0xfd,
  0x06, 0xdf, 0xf4, 0xd3, 0xca, 0x03, 0x08, 0xf7, 0xdf, 0x06, 0x03, 0x4d,
  0xfd, 0xde, 0xe3, 0xe2, 0x18, 0xdb, 0xdd, 0x01, 0x09, 0x02, 0x21, 0xf7,
  0x05, 0xeb, 0x12, 0xfd, 0x10, 0x0a, 0xf4, 0x01, 0xf6, 0xfe, 0xee, 0xfc,
  0xf8, 0xfd, 0xfb, 0x0c, 0xfe, 0x10, 0x00, 0xe8, 0x0f, 0xf7, 0xf3, 0x0e,
  0xf1, 0xfc, 0x0a, 0x03, 0xff, 0xd0, 0x00, 0xfc, 0xff, 0xf1, 0xf9, 0x07,
  0xf4, 0xc5, 0xd7, 0xf1, 0xf3, 0xea, 0x16, 0xe1, 0xef, 0xd2, 0xd7, 0xff,
  0x02, 0xf9, 0xfc, 0xf4, 0xdf, 0xe8, 0xe1, 0xdd, 0xf2, 0xdc, 0xef, 0xf0,
  0xe5, 0x1b, 0xe5, 0x3a, 0x4d, 0x2d, 0xdf, 0x09, 0x33, 0x14, 0x16, 0xe1,
  0x17, 0xfa, 0x08, 0xf9, 0x00, 0x07, 0xe3, 0xfc, 0x0b, 0xe7, 0xee, 0x1b,
  0x00, 0xea, 0xf2, 0x10, 0xe4, 0xef, 0xb7, 0xdb, 0xfb, 0x24, 0x1f, 0x1f,
  0x32, 0x0a, 0xe1, 0x06, 0x2b, 0xe8, 0xc1, 0xe5, 0x24, 0xcb, 0x01, 0xf2,
  0xe1, 0xf4, 0x04, 0xfe, 0x0b, 0xdd, 0xf4, 0x0e, 0xce, 0xf5, 0x13, 0xda,
  0x14, 0x04, 0x11, 0xed, 0x13, 0x1d, 0x13, 0x11, 0xf7, 0x12, 0x08, 0x0e,
  0x0e, 0x05, 0x01, 0x11, 0x0a, 0xed, 0xed, 0x05, 0xf7, 0x02, 0xe2, 0xfe,
  0xfc, 0xf5, 0x05, 0xd2, 0x0e, 0xfc, 0x0e, 0xf9, 0xf6, 0x06, 0xf3, 0xee,
  0xf5, 0xda, 0x0b, 0xec, 0xe9, 0x0e, 0x08, 0xea, 0xf5, 0xdb, 0xe1, 0xd5,
  0xec, 0xfc, 0x0f, 0xf3, 0x07, 0xea, 0xf3, 0xea, 0xf1, 0xe8, 0xf2, 0xff,
  0x07, 0xe7, 0x19, 0xd8, 0xe7, 0x05, 0xd6, 0xf4, 0xe9, 0xe4, 0xfd, 0x1e,
  0x26, 0xf7, 0xf3, 0x0e, 0x1e, 0x06, 0x0f, 0xe3, 0x25, 0x0a, 0x31, 0xd5,
  0xf4, 0x0b, 0xfa, 0xf5, 0xfe, 0xf9, 0x04, 0xdd, 0xfa, 0xda, 0xb4, 0x0e,
  0xde, 0x12, 0xe7, 0x04, 0xfe, 0x10, 0xea, 0x32, 0x21, 0x81, 0xd5, 0x11,
  0xdb, 0x1b, 0xe4, 0xd4, 0xdf, 0xbb, 0xcb, 0x0b, 0x17, 0x28, 0xf8, 0x1d,
  0xb7, 0xfb, 0xef, 0xe0, 0xd4, 0xf0, 0xfa, 0xda, 0xc5, 0xfa, 0xfb, 0x01,
  0xc6, 0xda, 0xee, 0xef, 0x08, 0xec, 0xe6, 0x02, 0xfe, 0x04, 0x08, 0xf9,
  0x03, 0xf9, 0x0b, 0x02, 0x06, 0x05, 0x01, 0x04, 0xf4, 0xf6, 0xf4, 0xc2,
  0x08, 0x04, 0x0b, 0x11, 0xfa, 0xf6, 0x01, 0xed, 0x10, 0xf9, 0xf0, 0xf5,
  0xeb, 0xfc, 0x03, 0xf1, 0xf7, 0xf2, 0xfa, 0x23, 0xf4, 0xff, 0xf6, 0xf6,
  0x0b, 0xfa, 0x18, 0xfa, 0xf7, 0x08, 0x08, 0xdf, 0xf4, 0x10, 0x0b, 0x13,
  0x08, 0xf8, 0x22, 0x12, 0x10, 0xf4, 0x0d, 0xfd, 0xfd, 0x03, 0x23, 0x05,
  0x02, 0x11, 0xfc, 0xfc, 0xfd, 0xf7, 0xef, 0x16, 0x01, 0xf2, 0x06, 0xfc,
  0x19, 0xf2, 0x09, 0x17, 0x12, 0x09, 0x34, 0xf6, 0x16, 0x27, 0x08, 0xf7,
  0x17, 0x01, 0x01, 0xf8, 0xf9, 0x02, 0x0c, 0xe0, 0xed, 0x01, 0xfb, 0x09,
  0x08, 0x11, 0xf7, 0x02, 0xea, 0xf2, 0xe9, 0xfb, 0x0c, 0x04, 0xee, 0xeb,
  0xed, 0x00, 0xf0, 0x14, 0x0c, 0x01, 0xfd, 0xfa, 0x04, 0xf3, 0xf8, 0xe2,
  0xe7, 0x07, 0x0a, 0xf1, 0x02, 0x09, 0x0e, 0x10, 0xf9, 0x13, 0xf1, 0xfc,
  0xfe, 0x09, 0x00, 0x10, 0xf8, 0x01, 0x10, 0xe4, 0x09, 0xf6, 0xff, 0x05,
  0x03, 0x01, 0x06, 0x07, 0x13, 0xf2, 0x0b, 0x0b, 0xfa, 0x05, 0x10, 0xfa,
  0x06, 0x00, 0xfc, 0xe7, 0xfa, 0x12, 0xcc, 0x0b, 0x36, 0xfa, 0x06, 0x0f,
  0x02, 0xfc, 0xfe, 0xf7, 0xff, 0xf0, 0xf4, 0x06, 0xe5, 0x19, 0x16, 0x12,
  0x1a, 0xb9, 0x01, 0x84, 0xa8, 0xdf, 0xf6, 0xe7, 0xc3, 0x02, 0x00, 0xf8,
  0xfe, 0x12, 0xe8, 0xf9, 0xe7, 0x10, 0xe1, 0x04, 0xfe, 0x01, 0x1e, 0xbd,
  0x00, 0xf6, 0xf6, 0xf7, 0x09, 0xef, 0x04, 0xd6, 0x08, 0xd4, 0x15, 0x94,
  0xf7, 0x14, 0x0d, 0x03, 0xc6, 0xea, 0x0b, 0xe6, 0x09, 0x06, 0xf6, 0x05,
  0x13, 0xe8, 0x0d, 0xf4, 0x30, 0x12, 0xbe, 0xe3, 0xff, 0xd1, 0x16, 0x0b,
  0xee, 0x06, 0xd4, 0xf1, 0x09, 0xeb, 0x14, 0xed, 0xfe, 0x0d, 0xe6, 0x01,
  0xf3, 0xf8, 0xf5, 0xea, 0xf6, 0x07, 0xeb, 0xed, 0xf3, 0x0f, 0xff, 0xe7,
  0x12, 0xf0, 0xf5, 0x98, 0xe7, 0x01, 0xfc, 0xf5, 0xfe, 0x10, 0xfe, 0xd8,
  0x01, 0x11, 0xf0, 0x02, 0x06, 0x08, 0xec, 0x0c, 0xf0, 0x0a, 0x10, 0xeb,
  0xff, 0xf7, 0x98, 0x08, 0xea, 0x0d, 0x0c, 0xe7, 0xfc, 0xda, 0xfb, 0x07,
  0x0b, 0x1f, 0x18, 0xf4, 0x07, 0xfd, 0x1b, 0xf5, 0x01, 0xfd, 0xf1, 0x91,
  0x81, 0xd5, 0x0e, 0xf8, 0x27, 0xf5, 0xf3, 0x05, 0xe6, 0x10, 0x03, 0x02,
  0x1a, 0x11, 0xd9, 0xe5, 0x09, 0x11, 0xfe, 0x08, 0x19, 0xf9, 0x21, 0x07,
  0x1e, 0x14, 0xfd, 0x02, 0xf2, 0xd3, 0xe7, 0x0c, 0xde, 0x10, 0xea, 0xcb,
  0xd7, 0x22, 0xf1, 0xe8, 0x1d, 0xf9, 0x19, 0xf1, 0xf0, 0x1f, 0x07, 0x1b,
  0xfa, 0x04, 0x08, 0x00, 0x05, 0x06, 0x40, 0xf4, 0xfe, 0xd6, 0x2b, 0x1e,
  0x14, 0xf9, 0xcb, 0x18, 0x04, 0xf0, 0xf9, 0xf6, 0xfc, 0x20, 0xf4, 0xf0,
  0xf2, 0xfd, 0xf3, 0x10, 0xea, 0xf2, 0xf3, 0x00, 0xd1, 0xe7, 0x10, 0x0d,
  0xef, 0xf3, 0xf7, 0x05, 0x05, 0xc9, 0x08, 0x04, 0xf7, 0xe6, 0xff, 0xf4,
  0xff, 0xe7, 0xfb, 0xff, 0xff, 0xfb, 0x00, 0x0f, 0x16, 0xf7, 0x02, 0xfd,
  0x08, 0x09, 0x13, 0x08, 0x07, 0x15, 0x11, 0x09, 0xfc, 0xee, 0x2c, 0x00,
  0x13, 0xed, 0x16, 0x0e, 0x0c, 0x10, 0x02, 0x02, 0xe7, 0x0a, 0x01, 0xdf,
  0x03, 0xfd, 0x03, 0xf1, 0x19, 0x0d, 0xf2, 0x20, 0x02, 0x24, 0x26, 0x09,
  0xf7, 0x12, 0x14, 0x17, 0xf8, 0x0d, 0xfd, 0xf4, 0x02, 0xf5, 0x14, 0x04,
  0x0a, 0x03, 0xfb, 0x03, 0x0c, 0x2c, 0x08, 0x21, 0x2c, 0xf8, 0x2c, 0x17,
  0xaa, 0x06, 0xc8, 0x09, 0x03, 0xc6, 0x00, 0xed, 0x11, 0x02, 0xea, 0xf5,
  0xf8, 0x14, 0x17, 0xfd, 0xfd, 0xee, 0x03, 0x06, 0x01, 0x05, 0x0c, 0x06,
  0xfd, 0xc8, 0x0f, 0x10, 0xe6, 0xf1, 0x0b, 0xd9, 0xe0, 0xf5, 0xfb, 0xf5,
  0xf2, 0xd2, 0xe4, 0xfc, 0xe8, 0xeb, 0xe9, 0xee, 0xe0, 0xcb, 0xf3, 0xf0,
  0xf2, 0x03, 0xe8, 0xf4, 0xe2, 0xfe, 0xf7, 0xf5, 0xec, 0xe3, 0xe6, 0xf8,
  0xf8, 0xf9, 0xef, 0x04, 0xf3, 0x03, 0xf3, 0xf6, 0xfe, 0xe6, 0xe7, 0x03,
  0x0b, 0xdf, 0xfe, 0xe8, 0x0b, 0xf6, 0xff, 0x0b, 0xe4, 0x25, 0xfb, 0xf9,
  0xfc, 0xf0, 0xe8, 0x03, 0x0b, 0xd8, 0xe0, 0x07, 0xd8, 0x19, 0xd7, 0xf5,
  0xeb, 0xf5, 0xe4, 0xfd, 0x05, 0x04, 0x0a, 0xe6, 0xe8, 0xf0, 0xfa, 0x00,
  0xea, 0xfb, 0xeb, 0xca, 0xdb, 0xd3, 0xfd, 0xfa, 0xd9, 0x06, 0x01, 0xe7,
  0xe8, 0xe2, 0xe0, 0x02, 0x14, 0xe8, 0xfb, 0x1d, 0x06, 0xeb, 0x0c, 0xe8,
  0xd9, 0x15, 0xfa, 0xf5, 0x1f, 0x03, 0xe2, 0xec, 0xf5, 0x07, 0xe4, 0x28,
  0xe9, 0xfd, 0x06, 0xe1, 0x0e, 0xee, 0xf0, 0xef, 0xf9, 0x00, 0x10, 0xf3,
  0xeb, 0xfb, 0xf6, 0xfb, 0xe7, 0xf4, 0xf9, 0xe9, 0xfd, 0xe9, 0xef, 0xeb,
  0xe9, 0xce, 0xfc, 0x07, 0xe8, 0xf5, 0xef, 0xfa, 0xed, 0xfd, 0xe8, 0x0c,
  0xe5, 0x05, 0x03, 0x01, 0xf9, 0xe4, 0xe7, 0xfe, 0x03, 0x0e, 0x1e, 0x31,
  0x16, 0x0b, 0xf5, 0x0c, 0xdd, 0x00, 0x00, 0x12, 0xed, 0x24, 0x10, 0x13,
  0x07, 0x1c, 0x0a, 0xfc, 0x19, 0x09, 0x08, 0x31, 0x1d, 0xf7, 0xdd, 0x19,
  0xd9, 0xeb, 0x04, 0x0b, 0xe2, 0xfc, 0xdc, 0x1c, 0xc6, 0x04, 0xcc, 0x06,
  0xd8, 0xd6, 0xd1, 0x04, 0xe0, 0x03, 0xf9, 0xae, 0xf9, 0x10, 0xf6, 0x05,
  0xef, 0x1a, 0xe2, 0x0b, 0xc2, 0xfa, 0xd7, 0x81, 0x93, 0xf2, 0xf7, 0xfb,
  0xff, 0xec, 0x08, 0x13, 0xea, 0x09, 0xe5, 0xeb, 0xf1, 0xf7, 0xd3, 0x18,
  0x07, 0x0f, 0xdd, 0x33, 0x10, 0x04, 0xf5, 0x0a, 0xe1, 0xfe, 0xdd, 0xdf,
  0xe6, 0x16, 0x01, 0xc3, 0xec, 0x00, 0xe9, 0x07, 0xe3, 0x05, 0xee, 0x24,
  0xfa, 0x0d, 0xfa, 0x03, 0x05, 0xef, 0x14, 0x18, 0xf1, 0x0f, 0xd4, 0x09,
  0xf3, 0xfe, 0xf2, 0x1a, 0x05, 0x08, 0x11, 0x17, 0xf0, 0x05, 0x0f, 0xf5,
  0xfa, 0xfe, 0xe9, 0xfd, 0xef, 0x11, 0x05, 0x1e, 0xec, 0x15, 0xe5, 0x0c,
  0x0f, 0x04, 0x29, 0x0b, 0x1f, 0x1a, 0xfc, 0x0e, 0x08, 0x1a, 0x02, 0x08,
  0xee, 0x0e, 0xef, 0x10, 0xf4, 0xd5, 0x01, 0x1a, 0xeb, 0xfd, 0x19, 0xec,
  0xde, 0xff, 0x03, 0x0d, 0x08, 0x14, 0xe1, 0x19, 0xd4, 0x22, 0x01, 0x13,
  0xf6, 0xff, 0x0a, 0xe4, 0x03, 0xf5, 0x1e, 0x16, 0x12, 0x0d, 0x0a, 0x0b,
  0x15, 0x08, 0x12, 0xa8, 0xf0, 0xfa, 0x34, 0x01, 0xd0, 0x13, 0xf9, 0x0b,
  0xe6, 0x22, 0xd3, 0x1f, 0xfb, 0xa5, 0xf9, 0xf9, 0x0b, 0x1c, 0x01, 0xe3,
  0xf5, 0x17, 0xc6, 0x00, 0x01, 0x28, 0x89, 0xfa, 0x00, 0x0b, 0x04, 0xee,
  0x10, 0x17, 0xf5, 0x17, 0xed, 0xf8, 0x0b, 0x30, 0xeb, 0x07, 0xf0, 0xea,
  0xf0, 0x12, 0x06, 0x01, 0xf8, 0x0c, 0xfe, 0xf5, 0xf8, 0x01, 0xe4, 0x09,
  0x04, 0x0b, 0xe7, 0x23, 0xe7, 0x0d, 0xec, 0x00, 0x0a, 0xf2, 0x0f, 0x15,
  0xfc, 0xcf, 0xe2, 0x15, 0x0b, 0x0a, 0x0e, 0xe5, 0x01, 0x06, 0xf0, 0xfa,
  0x01, 0x03, 0x10, 0x01, 0x06, 0xf4, 0xe9, 0xeb, 0x0e, 0x20, 0x08, 0xf1,
  0x01, 0xba, 0xea, 0x35, 0x41, 0xfc, 0x00, 0xe6, 0x17, 0xe9, 0x03, 0x15,
  0xfb, 0x0f, 0x23, 0xee, 0x1d, 0xbf, 0xf0, 0xf6, 0x07, 0x12, 0x0b, 0xfc,
  0xfd, 0x1c, 0xe2, 0x05, 0xe8, 0x07, 0x04, 0x14, 0x06, 0x17, 0x02, 0xd7,
  0xe0, 0x1c, 0x10, 0xe6, 0xfd, 0x0a, 0xe0, 0x06, 0xf5, 0x00, 0xdc, 0x01,
  0x06, 0xeb, 0x1f, 0x08, 0x0f, 0xec, 0xfc, 0x06, 0x0c, 0x16, 0xed, 0x1b,
  0xfd, 0x0c, 0xee, 0x06, 0xee, 0x95, 0x01, 0x0d, 0x1c, 0x0f, 0x00, 0xef,
  0xf6, 0x13, 0xe1, 0x3d, 0x07, 0x13, 0x06, 0x04, 0x09, 0x01, 0x0f, 0x01,
  0x04, 0x02, 0xfa, 0x2f, 0x14, 0x24, 0x1f, 0x1b, 0x19, 0x02, 0x3c, 0x04,
  0xf9, 0xfc, 0x06, 0x0d, 0x0a, 0xeb, 0x15, 0x01, 0xe6, 0xf7, 0xec, 0xf7,
  0xea, 0xf3, 0xe1, 0xea, 0xf7, 0xfe, 0xff, 0xe1, 0xea, 0xf3, 0xe1, 0xf4,
  0xdf, 0x0d, 0xe9, 0xfe, 0xfa, 0xd2, 0x03, 0x03, 0xf4, 0x03, 0x12, 0xef,
  0xdd, 0xe2, 0x03, 0xf8, 0x09, 0xea, 0xf0, 0x0b, 0x14, 0xf2, 0xf7, 0xec,
  0xdf, 0xdb, 0xfc, 0x03, 0xfc, 0x19, 0x01, 0x0f, 0xff, 0xee, 0xdf, 0x09,
  0xf5, 0xf7, 0x10, 0x04, 0xee, 0x07, 0x0c, 0xe2, 0xe1, 0x02, 0xfb, 0xed,
  0x02, 0xde, 0x0e, 0x14, 0x01, 0xfb, 0xf7, 0xf9, 0x0d, 0xe4, 0xff, 0x0a,
  0xfd, 0x00, 0xfc, 0x00, 0xf0, 0x0e, 0xe1, 0x07, 0xcd, 0x0c, 0xf4, 0x00,
  0xf6, 0x0c, 0x07, 0x03, 0xec, 0xe2, 0x08, 0x0c, 0x00, 0xf1, 0x10, 0x2b,
  0xf4, 0x24, 0xfe, 0x2a, 0x11, 0xfd, 0xfd, 0x0b, 0xdd, 0x1f, 0x08, 0x0a,
  0x0b, 0x07, 0x00, 0x21, 0x11, 0xf0, 0xf0, 0x1e, 0xf4, 0x2d, 0x00, 0xf9,
  0x01, 0xef, 0xf7, 0xe9, 0xf5, 0xec, 0xfa, 0x11, 0x0c, 0xeb, 0x4d, 0xe4,
  0xd7, 0xdb, 0xd0, 0xe6, 0xed, 0x07, 0xf5, 0x16, 0xf8, 0x08, 0xfe, 0xdb,
  0x10, 0xff, 0x08, 0xab, 0xe3, 0x0b, 0xde, 0x4f, 0x79, 0x36, 0xfb, 0x07,
  0x4e, 0x14, 0x1b, 0x2a, 0x30, 0x1a, 0x32, 0xed, 0x1b, 0xf0, 0x3e, 0x1e,
  0x17, 0x13, 0xbd, 0x35, 0x05, 0x17, 0xff, 0x10, 0xf8, 0x06, 0xf0, 0x2e,
  0x0d, 0x1c, 0x1a, 0x3f, 0x1e, 0xf2, 0x07, 0x0e, 0x08, 0x04, 0xe3, 0x16,
  0x37, 0xe8, 0x1a, 0xfd, 0x18, 0x15, 0x28, 0x15, 0xe9, 0xf2, 0x2a, 0x00,
  0xe4, 0x0e, 0xd8, 0x16, 0x19, 0xf6, 0x1b, 0x1b, 0xff, 0x1d, 0x0a, 0xfa,
  0x22, 0xe3, 0x08, 0x16, 0xee, 0xe6, 0xec, 0xe8, 0xe0, 0x03, 0xf6, 0xf0,
  0x01, 0xfa, 0xdb, 0xe3, 0x12, 0x0a, 0xd1, 0xad, 0xf3, 0xfd, 0xe9, 0x09,
  0xe7, 0xdb, 0x14, 0xf9, 0xfb, 0xfc, 0x03, 0xee, 0xf6, 0xf2, 0xea, 0x04,
  0xff, 0x1d, 0x03, 0x00, 0xf9, 0x19, 0x35, 0xfe, 0x16, 0x13, 0x13, 0x1e,
  0x01, 0x17, 0x01, 0xf2, 0x14, 0xea, 0x26, 0x32, 0xf7, 0x03, 0xf4, 0xed,
  0xfe, 0x45, 0xeb, 0xc8, 0xbe, 0xdf, 0x1b, 0xff, 0xec, 0xfe, 0x07, 0x04,
  0xff, 0x00, 0xfc, 0x17, 0x1c, 0x05, 0x2b, 0x09, 0xf2, 0x0d, 0xe7, 0x01,
  0x01, 0x09, 0x08, 0x0c, 0x04, 0x22, 0x0e, 0x22, 0xde, 0xf2, 0xe5, 0x2a,
  0xfd, 0xf4, 0x27, 0x1b, 0xe9, 0xe0, 0x19, 0xf1, 0xcf, 0x00, 0xbd, 0x0f,
  0xfe, 0x29, 0xd3, 0xf2, 0xfc, 0x0a, 0x14, 0xbc, 0xf5, 0xe4, 0xdd, 0x03,
  0xbf, 0x00, 0xed, 0x2b, 0xaf, 0xb7, 0x03, 0xfe, 0xd5, 0xbb, 0x16, 0xd5,
  0xc8, 0x01, 0x13, 0xf1, 0xce, 0x20, 0xda, 0x2e, 0xdf, 0xd9, 0x0a, 0x06,
  0xf7, 0xf0, 0x01, 0x11, 0xf1, 0xde, 0xf1, 0x1d, 0xfc, 0x05, 0xd9, 0x3b,
  0xea, 0x13, 0xde, 0xef, 0xf9, 0xe3, 0xf5, 0xfc, 0xf8, 0xe9, 0xf3, 0xef,
  0x01, 0xf1, 0x1d, 0xf8, 0x0a, 0xec, 0x17, 0x10, 0xf8, 0xd1, 0x00, 0xff,
  0x18, 0xd7, 0xe3, 0x14, 0xfb, 0xff, 0xfe, 0x06, 0xf5, 0xa3, 0xf7, 0xe5,
  0xd9, 0xf1, 0x05, 0xd1, 0xc4, 0xd3, 0xc8, 0xfe, 0xfe, 0xe0, 0xc7, 0xcd,
  0xfd, 0xed, 0x09, 0xe2, 0xdb, 0xfa, 0x06, 0xee, 0x0a, 0x19, 0xf4, 0xd5,
  0xe4, 0xb6, 0x0e, 0x12, 0xf1, 0xc3, 0x25, 0x07, 0xe2, 0x27, 0x1d, 0xc5,
  0xcb, 0x81, 0xce, 0x0e, 0xdc, 0xfc, 0xb3, 0xec, 0xf2, 0x83, 0xf3, 0xbb,
  0xea, 0xe7, 0xf9, 0x2a, 0x10, 0xfa, 0x04, 0xbe, 0x59, 0xdf, 0xfa, 0xf9,
  0x37, 0xbb, 0x1c, 0xe3, 0xd5, 0xfb, 0x10, 0x94, 0xd9, 0xe0, 0x0d, 0xdd,
  0xe4, 0xdc, 0xda, 0xdf, 0xe8, 0xed, 0xe8, 0xf3, 0x10, 0xf6, 0xcc, 0xd6,
  0xf0, 0xed, 0xe3, 0xe7, 0xd6, 0xed, 0xcd, 0xd4, 0x05, 0x02, 0xd8, 0xd4,
  0xcf, 0xe2, 0xc8, 0xf7, 0xec, 0xe7, 0xe4, 0xd8, 0xd3, 0x00, 0xc5, 0xee,
  0xe8, 0xdf, 0xf2, 0xf8, 0xda, 0xe5, 0xe4, 0xd7, 0xf5, 0xdd, 0x10, 0x03,
  0xd8, 0xd6, 0xc5, 0xec, 0xf4, 0xf3, 0xf1, 0xf3, 0xf6, 0xe2, 0xd5, 0xee,
  0xf0, 0xc8, 0xff, 0x2a, 0xde, 0x0a, 0xc3, 0xd0, 0xe4, 0xf7, 0xda, 0xf8,
  0x11, 0x31, 0xfb, 0xfa, 0xd6, 0x03, 0x14, 0xe9, 0x09, 0xc0, 0x17, 0xe0,
  0x08, 0xf9, 0x03, 0xc2, 0xba, 0xf2, 0x1a, 0xb5, 0xd6, 0xe7, 0xfd, 0xfb,
  0xc7, 0x1a, 0xe8, 0xe1, 0x1d, 0xb1, 0xf8, 0x1d, 0xe2, 0x15, 0xf2, 0x11,
  0xe3, 0x01, 0xee, 0x00, 0xcf, 0xe2, 0xf7, 0x07, 0xcd, 0x0c, 0x02, 0xe1,
  0xdc, 0xd1, 0xf3, 0xfd, 0xf1, 0x01, 0x01, 0x10, 0xe5, 0x06, 0xe8, 0xeb,
  0xed, 0xf5, 0xec, 0xfb, 0x11, 0xfc, 0xd9, 0xe9, 0xe6, 0xfe, 0xe4, 0xf9,
  0xda, 0xff, 0xca, 0xfe, 0xfe, 0x0b, 0xf4, 0xe7, 0xdb, 0xf3, 0xe6, 0xe2,
  0xf2, 0xef, 0x02, 0xda, 0x18, 0x17, 0x10, 0xf3, 0x2b, 0x06, 0x02, 0xfc,
  0x07, 0xf6, 0xf1, 0xfc, 0xf5, 0xf8, 0x0a, 0x0f, 0xfb, 0xde, 0xf3, 0xc7,
  0xed, 0x2e, 0x01, 0x26, 0x24, 0x1b, 0xed, 0x08, 0x1a, 0xfd, 0xf3, 0xe3,
  0x19, 0xe8, 0xfb, 0xf1, 0x20, 0x15, 0x27, 0xfc, 0xe9, 0x01, 0x06, 0x37,
  0xff, 0xf8, 0x0b, 0x09, 0x0b, 0x27, 0x08, 0xdf, 0x1b, 0x0e, 0xf2, 0x2e,
  0xdc, 0x10, 0x13, 0x07, 0x00, 0x15, 0xe5, 0x19, 0xfa, 0xd8, 0xfa, 0xee,
  0xef, 0x06, 0xcb, 0x12, 0xc7, 0x28, 0x1c, 0x05, 0x12, 0x27, 0xf9, 0x0d,
  0x00, 0x06, 0x2d, 0x3c, 0xfd, 0xe3, 0xb9, 0x21, 0xe8, 0xea, 0x1b, 0xe2,
  0xf2, 0x13, 0x15, 0x04, 0x02, 0xfe, 0xf1, 0x10, 0xf7, 0xfe, 0x01, 0xff,
  0xfd, 0xfb, 0x1e, 0x3c, 0x11, 0xf0, 0xf5, 0xf0, 0x05, 0xd3, 0xe5, 0x29,
  0xff, 0xce, 0xd9, 0x02, 0xf6, 0x0a, 0x13, 0x0a, 0xfb, 0x00, 0x06, 0xe3,
  0xea, 0x15, 0xf3, 0x0f, 0xff, 0x00, 0xfd, 0x0a, 0x07, 0x1d, 0x1e, 0x14,
  0x1b, 0x00, 0x00, 0xe3, 0x22, 0xfb, 0xee, 0x15, 0x0b, 0xee, 0x11, 0x13,
  0xfd, 0xf6, 0xec, 0xef, 0xfc, 0x0f, 0x08, 0xf2, 0x10, 0xec, 0x23, 0x05,
  0xf7, 0x08, 0xf5, 0xe7, 0xf5, 0x00, 0xf9, 0x0b, 0x1f, 0xfb, 0x0a, 0xfc,
  0xe2, 0xe8, 0x0d, 0x12, 0xdf, 0x02, 0x33, 0xdd, 0xfc, 0x1a, 0xfb, 0x1d,
  0xb3, 0xec, 0xf9, 0x12, 0x81, 0xe9, 0xe8, 0x1b, 0xdf, 0xde, 0x08, 0x12,
  0xef, 0xf2, 0xd6, 0xac, 0xf7, 0x16, 0xf7, 0x01, 0x1f, 0xff, 0x40, 0xe7,
  0xf0, 0xf7, 0xcc, 0xce, 0x07, 0x08, 0x00, 0xf9, 0x13, 0xf9, 0xe8, 0xf9,
  0x16, 0x19, 0xfe, 0x0b, 0xfe, 0xf5, 0x08, 0xe6, 0x21, 0xce, 0xef, 0xec,
  0x0e, 0x0a, 0xfc, 0xfa, 0x0d, 0x08, 0x11, 0xc4, 0x0f, 0xf7, 0xf6, 0xf3,
  0xed, 0x02, 0xd7, 0xfb, 0xfb, 0xec, 0xf0, 0x1d, 0x08, 0xf0, 0xde, 0x12,
  0xfa, 0xf3, 0xfb, 0xe2, 0xda, 0xf6, 0x09, 0xe8, 0xff, 0x00, 0x01, 0xdc,
  0xfa, 0x07, 0x00, 0xef, 0xf8, 0x3c, 0x06, 0xde, 0xd9, 0xd6, 0x0e, 0xf5,
  0x06, 0xe8, 0xcb, 0x0c, 0xd8, 0xff, 0xcd, 0xf0, 0x03, 0x06, 0xfe, 0xea,
  0x04, 0x0a, 0xf6, 0xfe, 0xef, 0x0d, 0xf3, 0xf8, 0x01, 0xdb, 0x09, 0xff,
  0x09, 0x9f, 0xf9, 0xe0, 0xdc, 0x08, 0x10, 0xfc, 0x18, 0x04, 0xfd, 0x20,
  0x14, 0xfc, 0x22, 0xfa, 0xfb, 0xe0, 0x09, 0x07, 0xf9, 0x07, 0x0e, 0xd7,
  0x00, 0x1c, 0xe2, 0xf9, 0xd7, 0xe3, 0xc8, 0xf6, 0x11, 0xe8, 0x04, 0xf9,
  0xf2, 0xc1, 0x06, 0x00, 0xf4, 0x11, 0xff, 0xf6, 0xfc, 0xf4, 0x06, 0xfa,
  0x0f, 0x14, 0xf2, 0xf1, 0xfd, 0xe8, 0x00, 0xd9, 0x04, 0xe5, 0x04, 0xfc,
  0xf8, 0xee, 0xcf, 0x15, 0xfb, 0x0c, 0xf8, 0xf5, 0x04, 0xf6, 0x07, 0x16,
  0xf7, 0xfb, 0x00, 0x10, 0x00, 0x00, 0xf2, 0x19, 0xf0, 0xfe, 0x18, 0x10,
  0x05, 0x11, 0xfd, 0x0c, 0xff, 0x05, 0xf6, 0xe7, 0xf0, 0x38, 0xff, 0x05,
  0xe2, 0xfe, 0x2b, 0xfd, 0xe3, 0x07, 0x17, 0xe1, 0x22, 0xf2, 0xfc, 0x17,
  0x01, 0x07, 0x0c, 0x11, 0xfc, 0xf2, 0x08, 0x0f, 0xf9, 0x0c, 0x04, 0x04,
  0x08, 0xe9, 0x13, 0xfd, 0xff, 0xff, 0x06, 0xf3, 0xf8, 0xfb, 0xfa, 0x09,
  0xf2, 0xf1, 0x10, 0x23, 0x07, 0xe8, 0x01, 0x13, 0x02, 0xf9, 0xf7, 0xe6,
  0xf0, 0x0b, 0xec, 0xf4, 0x1d, 0xf3, 0x0b, 0x02, 0x0d, 0xfe, 0x0b, 0xfa,
  0xed, 0xfa, 0xec, 0xf3, 0x04, 0xe0, 0x07, 0xff, 0xfc, 0xf7, 0x07, 0xe7,
  0xf1, 0x0a, 0xf3, 0xed, 0x0e, 0xf3, 0xf5, 0x09, 0x18, 0x16, 0xf3, 0xfb,
  0x04, 0xe2, 0x06, 0xf3, 0x10, 0x07, 0x0f, 0x08, 0xf5, 0x0f, 0xf2, 0xf7,
  0x0b, 0xf8, 0xfa, 0x09, 0x08, 0xfe, 0xfb, 0x02, 0xfa, 0xe3, 0x02, 0xd0,
  0xf0, 0xf5, 0xf1, 0xf2, 0xf5, 0xff, 0xfb, 0x01, 0x10, 0xe6, 0xe8, 0x05,
  0x09, 0xf3, 0xf8, 0x00, 0xf9, 0x13, 0xf0, 0xcb, 0xc1, 0x14, 0xf6, 0x03,
  0x14, 0x0b, 0x08, 0x10, 0x10, 0x02, 0x16, 0xae, 0x02, 0x11, 0xfa, 0xf1,
  0x0b, 0x1d, 0xf3, 0x03, 0x0f, 0xf3, 0xe1, 0x26, 0x0e, 0xe5, 0x19, 0x13,
  0x12, 0xf8, 0xe3, 0x22, 0x25, 0xf9, 0x37, 0x0e, 0xfc, 0x1b, 0x2b, 0x08,
  0xbf, 0xd5, 0xe7, 0xcb, 0xff, 0xdd, 0xd9, 0x07, 0xd3, 0x1d, 0xba, 0x05,
  0xd9, 0x1a, 0x1c, 0x1b, 0xf5, 0x9f, 0xfc, 0xe1, 0xf8, 0x04, 0xe7, 0xf2,
  0x09, 0xed, 0xe5, 0x23, 0xf3, 0xe8, 0x05, 0xe1, 0x08, 0xea, 0xf8, 0x0a,
  0xff, 0xfa, 0xe8, 0x0e, 0x03, 0x0a, 0xe9, 0xfe, 0xf6, 0x26, 0xfa, 0x0d,
  0xee, 0xee, 0x08, 0xf8, 0x00, 0xe0, 0xee, 0x31, 0xf7, 0xcd, 0xe5, 0x04,
  0xe4, 0xf7, 0x02, 0xfd, 0xfb, 0x0c, 0xf3, 0x05, 0x17, 0xfd, 0x2f, 0xff,
  0xe0, 0xda, 0xe1, 0xfe, 0x0b, 0xfb, 0x08, 0x01, 0xe8, 0x0a, 0x04, 0xf5,
  0xe7, 0xdc, 0xdf, 0x81, 0xee, 0x03, 0x00, 0xf7, 0x0c, 0x08, 0xea, 0xd8,
  0xd3, 0xf8, 0xfc, 0x15, 0xf5, 0xee, 0xf5, 0xf5, 0x07, 0xea, 0x12, 0xe2,
  0xfe, 0xd2, 0xa9, 0xc5, 0x08, 0x1e, 0xe4, 0x08, 0xed, 0x10, 0xde, 0xbf,
  0xe2, 0xd8, 0xe3, 0xce, 0xfa, 0xdf, 0xd4, 0x11, 0xf4, 0xe1, 0x01, 0xea,
  0xe4, 0xdc, 0x07, 0xf2, 0xf7, 0xdb, 0x0c, 0xdd, 0xd7, 0xea, 0xfe, 0xc6,
  0x0d, 0xf3, 0xfc, 0x08, 0x1d, 0x15, 0x2e, 0xf7, 0xf9, 0x0e, 0xf9, 0xf2,
  0x01, 0x18, 0x26, 0x01, 0x0d, 0x01, 0xfc, 0xf9, 0x02, 0xf7, 0xe8, 0xe6,
  0xf5, 0xfc, 0xf9, 0xef, 0x04, 0xf2, 0x00, 0x1d, 0xf8, 0x17, 0xf5, 0x16,
  0xf9, 0x02, 0x14, 0xde, 0x02, 0xf9, 0xf9, 0xee, 0xef, 0xee, 0xde, 0x05,
  0x04, 0xee, 0xfb, 0xf6, 0x02, 0xfe, 0x02, 0x05, 0x12, 0xf9, 0x07, 0xfa,
  0x13, 0x00, 0x05, 0x00, 0xfc, 0x00, 0xd1, 0xf3, 0xf0, 0xe6, 0xe9, 0xff,
  0x0b, 0xc5, 0x02, 0x12, 0xf0, 0x20, 0xc8, 0xc0, 0x03, 0x11, 0x19, 0xfe,
  0x1d, 0x00, 0xf5, 0x24, 0x06, 0x01, 0xff, 0x11, 0x05, 0x19, 0x14, 0xfa,
  0x16, 0xe6, 0x04, 0x06, 0x21, 0x0b, 0x0f, 0xf9, 0xf0, 0x3f, 0xf2, 0x13,
  0x16, 0xe2, 0xeb, 0x24, 0xec, 0x17, 0x08, 0xf2, 0x0d, 0x1c, 0xfc, 0x02,
  0xfc, 0x13, 0xfc, 0x0a, 0x10, 0x09, 0x0a, 0x18, 0xfb, 0xee, 0x1a, 0x16,
  0xf4, 0x0b, 0x18, 0x0a, 0xe8, 0x21, 0xfc, 0x08, 0x0e, 0x0a, 0xff, 0x13,
  0x0f, 0xef, 0xfc, 0xf1, 0x04, 0x08, 0xff, 0xf0, 0x0c, 0xfe, 0x11, 0x08,
  0xfb, 0xfb, 0x0c, 0xfc, 0x0a, 0xf9, 0xff, 0x09, 0xfd, 0xe2, 0xf9, 0x25,
  0x02, 0xe4, 0xf6, 0x01, 0x09, 0xea, 0xff, 0xe8, 0x17, 0xf7, 0xf5, 0xf7,
  0x02, 0x02, 0x09, 0xe6, 0x13, 0xec, 0xf3, 0x11, 0x0e, 0xf2, 0xf5, 0x08,
  0x01, 0xfc, 0x23, 0x01, 0x0e, 0x0e, 0x0a, 0x08, 0xff, 0xf5, 0x04, 0x1a,
  0x1f, 0xf9, 0x0b, 0x30, 0xea, 0x07, 0xe9, 0xf8, 0x01, 0x07, 0xe5, 0xd8,
  0xfe, 0xfb, 0xf0, 0xf4, 0xf9, 0x02, 0xf5, 0x06, 0xf3, 0x0b, 0x1c, 0x00,
  0xf3, 0x11, 0xec, 0xf8, 0x08, 0xd8, 0x03, 0xfe, 0x18, 0xf7, 0xe8, 0xfc,
  0xfa, 0x04, 0xe3, 0xf2, 0xf5, 0xf4, 0x02, 0x10, 0x15, 0x24, 0x0a, 0x09,
  0x06, 0x01, 0x02, 0xf4, 0xf6, 0x05, 0xfe, 0xf6, 0xe4, 0xfa, 0x07, 0x14,
  0xed, 0xea, 0xff, 0x04, 0x05, 0x0f, 0xe8, 0xeb, 0xf1, 0x0a, 0x01, 0x04,
  0x02, 0xef, 0xe9, 0xe6, 0xee, 0x0a, 0xe8, 0x03, 0xeb, 0xcf, 0xf9, 0xe8,
  0xfd, 0xff, 0xef, 0xe3, 0x04, 0xfc, 0xe8, 0xf5, 0x04, 0xe4, 0x0b, 0xe5,
  0xf5, 0xec, 0xe9, 0xf0, 0xfc, 0x02, 0xfe, 0x29, 0xf8, 0xe5, 0xe7, 0xe6,
  0xf8, 0xfe, 0xfa, 0xf7, 0xf5, 0xe6, 0x05, 0x05, 0xeb, 0xea, 0xf4, 0xfc,
  0x09, 0x17, 0x10, 0x23, 0xe3, 0x81, 0xed, 0xa7, 0xb5, 0xff, 0x10, 0x10,
  0xfd, 0x0d, 0xf5, 0xec, 0xf9, 0xe9, 0x12, 0xff, 0x0a, 0xf7, 0xb8, 0xe4,
  0xf5, 0xf9, 0xd8, 0xd4, 0x0e, 0xf0, 0x0a, 0xf2, 0x02, 0xe7, 0x48, 0x1f,
  0xd1, 0xae, 0xf2, 0x99, 0xf1, 0xf5, 0x9e, 0x0e, 0x4c, 0xf9, 0x0d, 0xe6,
  0x2c, 0xed, 0x15, 0x0a, 0x2e, 0x19, 0x06, 0xe8, 0xff, 0xe0, 0x1e, 0x02,
  0xff, 0x10, 0x3b, 0xe6, 0x1e, 0xf4, 0x26, 0x33, 0x18, 0xf1, 0x0c, 0x17,
  0x05, 0x0c, 0xfd, 0x0f, 0xff, 0x1a, 0x0d, 0xd4, 0x27, 0xed, 0xff, 0x11,
  0x1b, 0x04, 0x08, 0xf6, 0x07, 0xd1, 0x17, 0xc4, 0x10, 0xef, 0x1d, 0xe5,
  0x04, 0xf0, 0xf2, 0x06, 0x05, 0xf5, 0x0b, 0x10, 0x03, 0x26, 0x1e, 0xf7,
  0xf9, 0x0d, 0xfb, 0x1d, 0x1a, 0xe4, 0xae, 0x00, 0x29, 0xf9, 0x07, 0xfb,
  0xe0, 0xe7, 0xd7, 0xff, 0xce, 0x0a, 0xd8, 0xc8, 0xf0, 0xe7, 0x2b, 0x12,
  0xec, 0xf0, 0x0e, 0x96, 0x91, 0x18, 0x09, 0x0a, 0x04, 0xd4, 0x02, 0x02,
  0xfd, 0x04, 0xe4, 0x08, 0xf5, 0xc9, 0xfd, 0xf8, 0x18, 0x08, 0x1e, 0x1e,
  0xf7, 0x0c, 0xf7, 0xee, 0xf5, 0xea, 0xf7, 0xda, 0x05, 0xe5, 0xdd, 0xf6,
  0xe4, 0xe5, 0xc6, 0xc1, 0xfa, 0x07, 0x22, 0x09, 0x13, 0x07, 0x08, 0x1c,
  0x2a, 0x3a, 0x2d, 0xfd, 0x07, 0x05, 0x16, 0x19, 0x09, 0x00, 0x38, 0xfb,
  0xd9, 0x35, 0x37, 0x09, 0xd9, 0x1a, 0x19, 0x0b, 0x09, 0x1a, 0x12, 0x0c,
  0x24, 0x04, 0xfa, 0xd2, 0x0e, 0xe4, 0x16, 0x00, 0x25, 0x13, 0xfb, 0x12,
  0xf8, 0x14, 0x11, 0x06, 0xf6, 0xee, 0x25, 0xd4, 0xf8, 0x23, 0x08, 0xe3,
  0x21, 0x02, 0x0a, 0xf6, 0x17, 0x23, 0x04, 0xf2, 0x0b, 0x23, 0xe6, 0x1c,
  0x04, 0xe9, 0xcf, 0x00, 0xfe, 0xe7, 0xd9, 0xfe, 0xd9, 0xfd, 0xf4, 0xeb,
  0xe8, 0x1c, 0x18, 0xd5, 0x07, 0xfe, 0xf5, 0xf2, 0x06, 0xfb, 0x16, 0xf9,
  0xe4, 0xf1, 0x27, 0x25, 0x16, 0x2a, 0xeb, 0xe7, 0x15, 0xe9, 0x39, 0xb7,
  0xf7, 0xf5, 0x06, 0xde, 0xd0, 0xde, 0xfa, 0x08, 0xf1, 0xe4, 0xe1, 0x04,
  0xf6, 0xec, 0xa5, 0xfc, 0x0f, 0xbb, 0xf2, 0x1b, 0x16, 0xa1, 0xc4, 0x06,
  0xea, 0xf2, 0xab, 0xcf, 0xc0, 0xb9, 0xef, 0xe0, 0x0b, 0xbd, 0xe1, 0xee,
  0xe5, 0xd9, 0xe5, 0xeb, 0x08, 0xf2, 0x00, 0xcd, 0xfa, 0xc0, 0x21, 0xf1,
  0xf2, 0x00, 0xfe, 0xfd, 0xfe, 0x23, 0xdb, 0xfa, 0x29, 0xfb, 0x0f, 0xf2,
  0x18, 0xe4, 0x05, 0xe2, 0x0a, 0x27, 0xf7, 0xf7, 0x25, 0xf8, 0xfc, 0x1a,
  0x06, 0x0f, 0x1c, 0xe4, 0x15, 0x0b, 0x18, 0xcd, 0x10, 0xf3, 0xec, 0x16,
  0x04, 0x2b, 0xf4, 0xf5, 0x15, 0xec, 0xf0, 0xea, 0x17, 0xe1, 0xfb, 0xfc,
  0xdd, 0x19, 0x0c, 0x04, 0xe5, 0xeb, 0x06, 0x15, 0x0d, 0xf1, 0xec, 0xe7,
  0x07, 0xc1, 0xf3, 0xe5, 0xf7, 0x00, 0x28, 0x15, 0xf6, 0x22, 0xf0, 0xfe,
  0x2d, 0xcc, 0xf5, 0x05, 0x02, 0x10, 0xfd, 0xd9, 0xf8, 0xf9, 0xf2, 0x0a,
  0x1f, 0x09, 0xf9, 0xfc, 0x19, 0x13, 0xf7, 0x20, 0xf2, 0x00, 0x06, 0x30,
  0x0b, 0xec, 0x09, 0x07, 0x21, 0xff, 0x08, 0x15, 0xee, 0x1e, 0x0b, 0xf7,
  0x15, 0xf8, 0x22, 0xfd, 0x0f, 0xe8, 0x18, 0xf2, 0xf7, 0xec, 0x23, 0x2a,
  0x04, 0xdb, 0x2a, 0xe1, 0x08, 0xe2, 0xf4, 0xea, 0x30, 0xf7, 0xec, 0x05,
  0x14, 0x15, 0xe2, 0x0f, 0x16, 0x17, 0x06, 0x13, 0x17, 0x10, 0x12, 0x02,
  0xee, 0x1e, 0xf8, 0x00, 0x20, 0xe0, 0x18, 0xf6, 0x2b, 0x03, 0x09, 0xff,
  0x27, 0x03, 0x21, 0xf9, 0x05, 0xef, 0x08, 0x21, 0x0c, 0x23, 0x2a, 0x07,
  0xf7, 0xe3, 0xc0, 0xe0, 0xe6, 0xda, 0xe7, 0xfd, 0xbe, 0x1a, 0xfe, 0x06,
  0xca, 0x0e, 0x00, 0xd2, 0xef, 0xd5, 0x01, 0xd4, 0xea, 0xc7, 0xd5, 0x0a,
  0x16, 0x12, 0xf0, 0xe6, 0xe9, 0xbe, 0xe7, 0xe2, 0xfb, 0xf8, 0xd7, 0x16,
  0xf2, 0x11, 0xf3, 0x10, 0xce, 0xdc, 0x92, 0x15, 0xea, 0xee, 0xc8, 0xe4,
  0xf6, 0x0d, 0x06, 0xd8, 0xb4, 0x09, 0xf6, 0xfb, 0xef, 0xf7, 0xc3, 0xa6,
  0x9a, 0xb6, 0xff, 0x0d, 0xac, 0x05, 0xee, 0x6b, 0xc5, 0x14, 0xd1, 0xf5,
  0x0c, 0xb8, 0x2b, 0xc5, 0xf1, 0x0a, 0xc4, 0xc8, 0x23, 0x48, 0xae, 0xf8,
  0xe3, 0xc4, 0xe9, 0x09, 0xdf, 0x04, 0x42, 0xb1, 0x29, 0xe3, 0xd4, 0xed,
  0x02, 0xf3, 0x0c, 0xf9, 0x0f, 0xea, 0xed, 0xe3, 0xfb, 0x19, 0x1f, 0xe1,
  0x08, 0xea, 0x1c, 0xfa, 0x07, 0xde, 0x0e, 0xf7, 0x0c, 0xe9, 0x00, 0xe8,
  0x19, 0xee, 0xdb, 0x03, 0x10, 0x0c, 0xe3, 0xe9, 0xea, 0x01, 0xe8, 0xfa,
  0xd9, 0xea, 0x0e, 0xdc, 0x9f, 0x03, 0xdf, 0xbf, 0xf0, 0xd7, 0xef, 0xf7,
  0x14, 0x05, 0x05, 0xd8, 0x1d, 0xf5, 0x0b, 0xc9, 0xc6, 0xc1, 0xef, 0x44,
  0x15, 0xe8, 0xa6, 0x14, 0xf1, 0xee, 0x08, 0x14, 0x06, 0x0f, 0xf0, 0x20,
  0xf1, 0x12, 0x94, 0x13, 0xe7, 0x20, 0xff, 0xd2, 0xb6, 0xe8, 0xfb, 0xde,
  0x35, 0x11, 0x1c, 0x0a, 0xd7, 0x01, 0xa5, 0x0f, 0xea, 0x3e, 0xf7, 0x2a,
  0x2f, 0xdf, 0xde, 0x0c, 0x0d, 0x9f, 0x17, 0xbc, 0xdb, 0xf8, 0xde, 0xf8,
  0xd1, 0x07, 0x0a, 0xed, 0xd4, 0x03, 0xa9, 0xef, 0xcd, 0xfa, 0x81, 0xd3,
  0x0d, 0xe9, 0xfa, 0xee, 0x01, 0xfa, 0x0f, 0x10, 0x0e, 0xf5, 0x16, 0xd7,
  0x0f, 0xdf, 0xf8, 0xd4, 0x10, 0x11, 0xfb, 0xc4, 0xfe, 0xa7, 0xfc, 0x9d,
  0x0c, 0xda, 0x02, 0x02, 0x13, 0xde, 0xfb, 0xb4, 0xfa, 0xd7, 0xe5, 0xfa,
  0xe0, 0xea, 0xf7, 0xfd, 0x1f, 0xed, 0xf6, 0x04, 0x11, 0x17, 0x16, 0x15,
  0x03, 0x19, 0x02, 0x0a, 0x07, 0x23, 0x05, 0x0d, 0x29, 0x1b, 0x06, 0x0c,
  0x20, 0x31, 0xe5, 0x20, 0xf2, 0x16, 0xf3, 0x52, 0xf8, 0x0f, 0x08, 0xfd,
  0xe5, 0xee, 0x29, 0xfe, 0xf7, 0x03, 0xeb, 0x32, 0x1c, 0x05, 0xf3, 0x00,
  0x20, 0xff, 0xe3, 0xe9, 0x2c, 0x00, 0xf7, 0x01, 0x18, 0x2d, 0xcc, 0xfc,
  0xe8, 0xff, 0xfe, 0x17, 0x30, 0x07, 0x11, 0xf1, 0x3c, 0x19, 0x06, 0xfe,
  0xd2, 0x00, 0xf7, 0x06, 0xc5, 0xe9, 0xe3, 0x16, 0x0c, 0x22, 0xe9, 0xb5,
  0xf0, 0xe1, 0xe8, 0x0d, 0x17, 0x11, 0xc8, 0xf6, 0xe8, 0xfd, 0xd7, 0xf9,
  0x0d, 0x1b, 0x04, 0x0a, 0xff, 0x1c, 0x04, 0xde, 0x1c, 0xeb, 0xfd, 0xf5,
  0xf5, 0x0d, 0x12, 0xdd, 0xfe, 0xed, 0x0e, 0xca, 0x05, 0xd3, 0x03, 0xf1,
  0x08, 0x0c, 0x18, 0xdc, 0x00, 0x2c, 0xd5, 0x09, 0x13, 0x05, 0xfe, 0x12,
  0x32, 0x0b, 0x0b, 0xfd, 0x07, 0x23, 0x26, 0xf1, 0x13, 0xfb, 0xf6, 0xff,
  0x1e, 0xfe, 0x21, 0x2a, 0x15, 0x07, 0xf2, 0x0a, 0x15, 0x37, 0x07, 0x07,
  0x0f, 0x12, 0x06, 0x28, 0x23, 0x05, 0x11, 0x23, 0xe5, 0xfc, 0x09, 0x26,
  0x10, 0x1a, 0x05, 0x15, 0x29, 0x09, 0xf1, 0x16, 0x0e, 0x02, 0x1d, 0xed,
  0x11, 0x29, 0xde, 0x17, 0x0e, 0x18, 0x01, 0x12, 0x1e, 0x26, 0x29, 0x03,
  0x19, 0x05, 0x01, 0x09, 0xed, 0x27, 0x05, 0xfe, 0x1c, 0xf1, 0x1a, 0x0c,
  0xe8, 0x14, 0x0a, 0x02, 0x1c, 0x14, 0x1f, 0x17, 0x31, 0x0b, 0x13, 0x07,
  0x2b, 0x06, 0x20, 0xf7, 0x17, 0xff, 0xee, 0x14, 0x06, 0x27, 0x24, 0x09,
  0x0e, 0x0e, 0xe3, 0x03, 0xf6, 0x07, 0x18, 0xfb, 0x04, 0x00, 0x0a, 0xf8,
  0x05, 0xfa, 0xf3, 0xf3, 0x0b, 0x0c, 0x11, 0xe9, 0x10, 0xff, 0xf3, 0x20,
  0x0e, 0x0a, 0x04, 0x07, 0xf5, 0xef, 0x01, 0x05, 0x12, 0x0a, 0x2c, 0xe8,
  0x04, 0x15, 0x0b, 0x07, 0xea, 0x2a, 0x0a, 0x10, 0x01, 0xe7, 0x1e, 0x11,
  0x05, 0x13, 0x1e, 0x0c, 0x0c, 0x04, 0x10, 0xf3, 0xec, 0xfe, 0x24, 0x22,
  0x1c, 0xc9, 0xe1, 0x1e, 0xe0, 0x01, 0x2d, 0xe4, 0xfc, 0x09, 0x02, 0x2a,
  0xec, 0x18, 0xcb, 0x01, 0x08, 0xfd, 0x43, 0xe4, 0x1a, 0x01, 0xfc, 0x01,
  0x2b, 0xf2, 0x53, 0xf9, 0x27, 0x19, 0xcf, 0xd0, 0x20, 0x11, 0x23, 0x1b,
  0x3b, 0x06, 0x31, 0x0c, 0x02, 0x14, 0xf3, 0x03, 0xfb, 0xe0, 0x2c, 0x13,
  0x31, 0xf4, 0xca, 0x9f, 0xe5, 0xee, 0xea, 0x21, 0xdd, 0x05, 0x09, 0xa0,
  0xf8, 0xfc, 0x28, 0xe6, 0x09, 0x23, 0xce, 0x2b, 0x19, 0xf1, 0xf3, 0xf1,
  0xfe, 0xfc, 0xee, 0xe1, 0xfa, 0x18, 0x05, 0xd8, 0x03, 0xd5, 0xd5, 0xbe,
  0xf0, 0x12, 0xfd, 0x13, 0x29, 0x16, 0xf8, 0xc3, 0x0c, 0x31, 0x06, 0x16,
  0x06, 0xfc, 0xf9, 0x20, 0x0c, 0xbf, 0xf7, 0xf5, 0x18, 0xf6, 0xeb, 0xcf,
  0x02, 0x05, 0xdd, 0xde, 0xe7, 0xce, 0x03, 0xf0, 0x15, 0xd5, 0xc1, 0x0d,
  0x0b, 0x09, 0x0b, 0x07, 0xfa, 0xc1, 0xdd, 0x38, 0x33, 0xbc, 0xfd, 0xc5,
  0xd3, 0x04, 0xe0, 0xd9, 0xd7, 0x11, 0xaf, 0xf4, 0x35, 0x05, 0xd3, 0x17,
  0x11, 0x1a, 0xff, 0xe2, 0x25, 0xe5, 0x95, 0xf5, 0xda, 0xca, 0x30, 0x25,
  0x40, 0xb7, 0xe6, 0xdb, 0xfb, 0xb3, 0xfe, 0xc1, 0x0d, 0x2f, 0xf6, 0xd7,
  0x3b, 0xdf, 0x09, 0xe1, 0xf9, 0xff, 0x09, 0x10, 0x32, 0x03, 0xff, 0xcf,
  0x12, 0xe4, 0xfc, 0xf2, 0xac, 0xd9, 0xdb, 0xf0, 0x01, 0xb8, 0x09, 0x24,
  0x13, 0xda, 0xe9, 0x03, 0x0d, 0x10, 0xf3, 0xe7, 0xfe, 0xd2, 0xe3, 0xef,
  0x1d, 0x26, 0xfa, 0x03, 0xe2, 0xee, 0xf2, 0x08, 0x0c, 0xe2, 0xfc, 0xdb,
  0xdf, 0xe2, 0xfc, 0xf6, 0xf8, 0xdb, 0xfa, 0x1d, 0xfb, 0x04, 0x0a, 0x10,
  0xed, 0x18, 0x01, 0xfc, 0xe9, 0xe1, 0xe7, 0xed, 0xf0, 0xd1, 0xea, 0xc9,
  0xe7, 0xf4, 0xd4, 0xf3, 0xbe, 0xeb, 0xcb, 0x9e, 0xe8, 0xec, 0xe8, 0xee,
  0xf2, 0x92, 0x0a, 0xb8, 0x93, 0xf8, 0xf6, 0xa9, 0xea, 0x91, 0xeb, 0x46,
  0xdd, 0x19, 0xe2, 0xe5, 0xf2, 0xf6, 0xc1, 0xfd, 0x04, 0xe2, 0xf7, 0x14,
  0xdd, 0x49, 0x1e, 0xf9, 0xe2, 0x0f, 0x04, 0xe7, 0xe7, 0xe2, 0x01, 0xf9,
  0xd9, 0xa1, 0xe7, 0xaa, 0xc5, 0xf6, 0xf2, 0xd7, 0xc3, 0xf4, 0x15, 0xcd,
  0x04, 0xf3, 0x1e, 0xe7, 0xb0, 0xc4, 0x18, 0x00, 0xe2, 0xdc, 0xdf, 0x0f,
  0xed, 0xea, 0xe6, 0xfd, 0x81, 0x57, 0xba, 0xda, 0x10, 0xc7, 0xe9, 0xf7,
  0xf5, 0xf0, 0x04, 0xf8, 0x1a, 0x04, 0xee, 0xdb, 0xf9, 0x10, 0xe4, 0xe1,
  0xf8, 0xff, 0xfa, 0xe0, 0x0c, 0x0e, 0x05, 0xd8, 0xf2, 0xe6, 0xd6, 0xdd,
  0xfd, 0xf9, 0xeb, 0xf6, 0xe3, 0xfd, 0xd6, 0xef, 0xff, 0x04, 0xcc, 0xf2,
  0xf3, 0xdf, 0xf9, 0xfd, 0xe8, 0xe1, 0xdf, 0xe6, 0xc9, 0xde, 0x01, 0xfe,
  0xff, 0xde, 0xfc, 0x01, 0x02, 0xea, 0xde, 0xea, 0xfc, 0x08, 0x12, 0xee,
  0xf8, 0xf0, 0xfe, 0xee, 0x22, 0xf1, 0xf0, 0xd6, 0xe8, 0x02, 0xf4, 0xd2,
  0xd9, 0xfe, 0xda, 0xd6, 0x03, 0xf7, 0x08, 0xee, 0x15, 0xc8, 0xc4, 0x1f,
  0xe5, 0xe4, 0x00, 0xde, 0xfa, 0xfa, 0xf4, 0x02, 0x0a, 0x07, 0x13, 0x19,
  0x0a, 0xe6, 0xe3, 0x08, 0xef, 0x01, 0xe7, 0xe6, 0xe5, 0x0b, 0xdc, 0xee,
  0xe7, 0xf8, 0xe6, 0xde, 0x07, 0xfd, 0xe4, 0xe3, 0xee, 0xe9, 0xf2, 0x0c,
  0xf3, 0x17, 0xeb, 0x01, 0xf3, 0xeb, 0xfc, 0xe6, 0x02, 0x09, 0xf0, 0xfb,
  0x02, 0xfb, 0xe9, 0xe5, 0xe2, 0x00, 0x06, 0x05, 0xfc, 0x03, 0x03, 0xfe,
  0x05, 0xe2, 0xfa, 0xfc, 0x01, 0x00, 0xff, 0xf9, 0x17, 0x14, 0x14, 0xf1,
  0x0e, 0xec, 0x0b, 0x10, 0x1a, 0xff, 0xff, 0xff, 0x04, 0x00, 0x00, 0x00,
  0x28, 0x00, 0x00, 0x00, 0x7a, 0x00, 0x00, 0x00, 0xfc, 0xff, 0xff, 0xff,
  0xb2, 0xff, 0xff, 0xff, 0xa8, 0xff, 0xff, 0xff, 0x7b, 0xff, 0xff, 0xff,
  0x3f, 0x00, 0x00, 0x00, 0xde, 0xff, 0xff, 0xff, 0xa5, 0x00, 0x00, 0x00,
  0x21, 0x00, 0x00, 0x00, 0x16, 0x00, 0x00, 0x00, 0x4e, 0xff, 0xff, 0xff,
  0x04, 0x00, 0x00, 0x00, 0x08, 0x00, 0x00, 0x00, 0x01, 0x00, 0x00, 0x00,
  0x00, 0x02, 0x00, 0x00, 0xd4, 0xf0, 0xff, 0xff, 0xd8, 0xf0, 0xff, 0xff,
  0x0f, 0x00, 0x00, 0x00, 0x4d, 0x4c, 0x49, 0x52, 0x20, 0x43, 0x6f, 0x6e,
  0x76, 0x65, 0x72, 0x74, 0x65, 0x64, 0x2e, 0x00, 0x01, 0x00, 0x00, 0x00,
  0x14, 0x00, 0x00, 0x00, 0x00, 0x00, 0x0e, 0x00, 0x18, 0x00, 0x14, 0x00,
  0x10, 0x00, 0x0c, 0x00, 0x08, 0x00, 0x04, 0x00, 0x0e, 0x00, 0x00, 0x00,
  0x14, 0x00, 0x00, 0x00, 0x1c, 0x00, 0x00, 0x00, 0xc0, 0x01, 0x00, 0x00,
  0xc4, 0x01, 0x00, 0x00, 0xc8, 0x01, 0x00, 0x00, 0x04, 0x00, 0x00, 0x00,
  0x6d, 0x61, 0x69, 0x6e, 0x00, 0x00, 0x00, 0x00, 0x06, 0x00, 0x00, 0x00,
  0x5c, 0x01, 0x00, 0x00, 0x0c, 0x01, 0x00, 0x00, 0xcc, 0x00, 0x00, 0x00,
  0xa4, 0x00, 0x00, 0x00, 0x60, 0x00, 0x00, 0x00, 0x14, 0x00, 0x00, 0x00,
  0x00, 0x00, 0x0e, 0x00, 0x1a, 0x00, 0x14, 0x00, 0x10, 0x00, 0x0c, 0x00,
  0x0b, 0x00, 0x04, 0x00, 0x0e, 0x00, 0x00, 0x00, 0x1c, 0x00, 0x00, 0x00,
  0x00, 0x00, 0x00, 0x09, 0x1c, 0x00, 0x00, 0x00, 0x20, 0x00, 0x00, 0x00,
  0x03, 0x00, 0x00, 0x00, 0x00, 0x00, 0x06, 0x00, 0x08, 0x00, 0x04, 0x00,
  0x06, 0x00, 0x00, 0x00, 0x00, 0x00, 0x80, 0x3f, 0x01, 0x00, 0x00, 0x00,
  0x0f, 0x00, 0x00, 0x00, 0x01, 0x00, 0x00, 0x00, 0x0e, 0x00, 0x00, 0x00,
  0x00, 0x00, 0x0e, 0x00, 0x18, 0x00, 0x14, 0x00, 0x10, 0x00, 0x0c, 0x00,
  0x0b, 0x00, 0x04, 0x00, 0x0e, 0x00, 0x00, 0x00, 0x14, 0x00, 0x00, 0x00,
  0x00, 0x00, 0x00, 0x08, 0x10, 0x00, 0x00, 0x00, 0x14, 0x00, 0x00, 0x00,
  0x02, 0x00, 0x00, 0x00, 0xb8, 0xf1, 0xff, 0xff, 0x01, 0x00, 0x00, 0x00,
  0x0e, 0x00, 0x00, 0x00, 0x03, 0x00, 0x00, 0x00, 0x0d, 0x00, 0x00, 0x00,
  0x03, 0x00, 0x00, 0x00, 0x02, 0x00, 0x00, 0x00, 0x00, 0x00, 0x0a, 0x00,
  0x10, 0x00, 0x0c, 0x00, 0x08, 0x00, 0x04, 0x00, 0x0a, 0x00, 0x00, 0x00,
  0x0c, 0x00, 0x00, 0x00, 0x10, 0x00, 0x00, 0x00, 0x01, 0x00, 0x00, 0x00,
  0x01, 0x00, 0x00, 0x00, 0x0d, 0x00, 0x00, 0x00, 0x02, 0x00, 0x00, 0x00,
  0x0c, 0x00, 0x00, 0x00, 0x01, 0x00, 0x00, 0x00, 0x86, 0xff, 0xff, 0xff,
  0x10, 0x00, 0x00, 0x00, 0x00, 0x00, 0x00, 0x01, 0x18, 0x00, 0x00, 0x00,
  0x1c, 0x00, 0x00, 0x00, 0x78, 0xff, 0xff, 0xff, 0x00, 0x00, 0x00, 0x01,
  0x02, 0x00, 0x00, 0x00, 0x02, 0x00, 0x00, 0x00, 0x01, 0x00, 0x00, 0x00,
  0x0c, 0x00, 0x00, 0x00, 0x03, 0x00, 0x00, 0x00, 0x0b, 0x00, 0x00, 0x00,
  0x05, 0x00, 0x00, 0x00, 0x04, 0x00, 0x00, 0x00, 0xc2, 0xff, 0xff, 0xff,
  0x10, 0x00, 0x00, 0x00, 0x00, 0x00, 0x00, 0x01, 0x18, 0x00, 0x00, 0x00,
  0x1c, 0x00, 0x00, 0x00, 0xb4, 0xff, 0xff, 0xff, 0x00, 0x00, 0x00, 0x01,
  0x02, 0x00, 0x00, 0x00, 0x02, 0x00, 0x00, 0x00, 0x01, 0x00, 0x00, 0x00,
  0x0b, 0x00, 0x00, 0x00, 0x03, 0x00, 0x00, 0x00, 0x0a, 0x00, 0x00, 0x00,
  0x07, 0x00, 0x00, 0x00, 0x06, 0x00, 0x00, 0x00, 0x00, 0x00, 0x0e, 0x00,
  0x14, 0x00, 0x00, 0x00, 0x10, 0x00, 0x0c, 0x00, 0x0b, 0x00, 0x04, 0x00,
  0x0e, 0x00, 0x00, 0x00, 0x1c, 0x00, 0x00, 0x00, 0x00, 0x00, 0x00, 0x01,
  0x24, 0x00, 0x00, 0x00, 0x28, 0x00, 0x00, 0x00, 0x0c, 0x00, 0x10, 0x00,
  0x00, 0x00, 0x0c, 0x00, 0x08, 0x00, 0x07, 0x00, 0x0c, 0x00, 0x00, 0x00,
  0x00, 0x00, 0x00, 0x01, 0x02, 0x00, 0x00, 0x00, 0x02, 0x00, 0x00, 0x00,
  0x01, 0x00, 0x00, 0x00, 0x0a, 0x00, 0x00, 0x00, 0x03, 0x00, 0x00, 0x00,
  0x00, 0x00, 0x00, 0x00, 0x09, 0x00, 0x00, 0x00, 0x08, 0x00, 0x00, 0x00,
  0x01, 0x00, 0x00, 0x00, 0x0f, 0x00, 0x00, 0x00, 0x01, 0x00, 0x00, 0x00,
  0x00, 0x00, 0x00, 0x00, 0x10, 0x00, 0x00, 0x00, 0x54, 0x0d, 0x00, 0x00,
  0xf8, 0x0c, 0x00, 0x00, 0x28, 0x0c, 0x00, 0x00, 0x54, 0x0b, 0x00, 0x00,
  0x80, 0x09, 0x00, 0x00, 0x9c, 0x07, 0x00, 0x00, 0x88, 0x06, 0x00, 0x00,
  0x64, 0x05, 0x00, 0x00, 0xb0, 0x04, 0x00, 0x00, 0xec, 0x03, 0x00, 0x00,
  0x18, 0x03, 0x00, 0x00, 0x3c, 0x02, 0x00, 0x00, 0x60, 0x01, 0x00, 0x00,
  0xec, 0x00, 0x00, 0x00, 0x60, 0x00, 0x00, 0x00, 0x04, 0x00, 0x00, 0x00,
  0x02, 0xf3, 0xff, 0xff, 0x00, 0x00, 0x00, 0x01, 0x14, 0x00, 0x00, 0x00,
  0x30, 0x00, 0x00, 0x00, 0x10, 0x00, 0x00, 0x00, 0x00, 0x00, 0x00, 0x09,
  0x34, 0x00, 0x00, 0x00, 0xec, 0xf2, 0xff, 0xff, 0x08, 0x00, 0x00, 0x00,
  0x10, 0x00, 0x00, 0x00, 0x01, 0x00, 0x00, 0x00, 0x80, 0xff, 0xff, 0xff,
  0xff, 0xff, 0xff, 0xff, 0x01, 0x00, 0x00, 0x00, 0x00, 0x00, 0x80, 0x3b,
  0x08, 0x00, 0x00, 0x00, 0x49, 0x64, 0x65, 0x6e, 0x74, 0x69, 0x74, 0x79,
  0x00, 0x00, 0x00, 0x00, 0x02, 0x00, 0x00, 0x00, 0x01, 0x00, 0x00, 0x00,
  0x0a, 0x00, 0x00, 0x00, 0x5a, 0xf3, 0xff, 0xff, 0x00, 0x00, 0x00, 0x01,
  0x14, 0x00, 0x00, 0x00, 0x30, 0x00, 0x00, 0x00, 0x0f, 0x00, 0x00, 0x00,
  0x00, 0x00, 0x00, 0x09, 0x64, 0x00, 0x00, 0x00, 0x44, 0xf3, 0xff, 0xff,
  0x08, 0x00, 0x00, 0x00, 0x10, 0x00, 0x00, 0x00, 0x01, 0x00, 0x00, 0x00,
  0x3f, 0x00, 0x00, 0x00, 0x00, 0x00, 0x00, 0x00, 0x01, 0x00, 0x00, 0x00,
  0x5b, 0x11, 0xa1, 0x3e, 0x38, 0x00, 0x00, 0x00, 0x66, 0x75, 0x6e, 0x63,
  0x74, 0x69, 0x6f, 0x6e, 0x61, 0x6c, 0x5f, 0x31, 0x2f, 0x64, 0x65, 0x6e,
  0x73, 0x65, 0x5f, 0x31, 0x2f, 0x4d, 0x61, 0x74, 0x4d, 0x75, 0x6c, 0x3b,
  0x66, 0x75, 0x6e, 0x63, 0x74, 0x69, 0x6f, 0x6e, 0x61, 0x6c, 0x5f, 0x31,
  0x2f, 0x64, 0x65, 0x6e, 0x73, 0x65, 0x5f, 0x31, 0x2f, 0x42, 0x69, 0x61,
  0x73, 0x41, 0x64, 0x64, 0x00, 0x00, 0x00, 0x00, 0x02, 0x00, 0x00, 0x00,
  0x01, 0x00, 0x00, 0x00, 0x0a, 0x00, 0x00, 0x00, 0xe2, 0xf3, 0xff, 0xff,
  0x00, 0x00, 0x00, 0x01, 0x14, 0x00, 0x00, 0x00, 0x34, 0x00, 0x00, 0x00,
  0x0e, 0x00, 0x00, 0x00, 0x00, 0x00, 0x00, 0x09, 0x4c, 0x00, 0x00, 0x00,
  0xcc, 0xf3, 0xff, 0xff, 0x08, 0x00, 0x00, 0x00, 0x14, 0x00, 0x00, 0x00,
  0x01, 0x00, 0x00, 0x00, 0x80, 0xff, 0xff, 0xff, 0xff, 0xff, 0xff, 0xff,
  0x00, 0x00, 0x00, 0x00, 0x01, 0x00, 0x00, 0x00, 0xdf, 0xfd, 0xfc, 0x3d,
  0x1e, 0x00, 0x00, 0x00, 0x66, 0x75, 0x6e, 0x63, 0x74, 0x69, 0x6f, 0x6e,
  0x61, 0x6c, 0x5f, 0x31, 0x2f, 0x66, 0x6c, 0x61, 0x74, 0x74, 0x65, 0x6e,
  0x5f, 0x31, 0x2f, 0x52, 0x65, 0x73, 0x68, 0x61, 0x70, 0x65, 0x00, 0x00,
  0x02, 0x00, 0x00, 0x00, 0x01, 0x00, 0x00, 0x00, 0x00, 0x02, 0x00, 0x00,
  0x52, 0xf4, 0xff, 0xff, 0x00, 0x00, 0x00, 0x01, 0x14, 0x00, 0x00, 0x00,
  0x30, 0x00, 0x00, 0x00, 0x0d, 0x00, 0x00, 0x00, 0x00, 0x00, 0x00, 0x09,
  0xac, 0x00, 0x00, 0x00, 0x3c, 0xf4, 0xff, 0xff, 0x08, 0x00, 0x00, 0x00,
  0x10, 0x00, 0x00, 0x00, 0x01, 0x00, 0x00, 0x00, 0x80, 0xff, 0xff, 0xff,
  0xff, 0xff, 0xff, 0xff, 0x01, 0x00, 0x00, 0x00, 0xdf, 0xfd, 0xfc, 0x3d,
  0x80, 0x00, 0x00, 0x00, 0x66, 0x75, 0x6e, 0x63, 0x74, 0x69, 0x6f, 0x6e,
  0x61, 0x6c, 0x5f, 0x31, 0x2f, 0x63, 0x6f, 0x6e, 0x76, 0x32, 0x64, 0x5f,
  0x32, 0x5f, 0x31, 0x2f, 0x52, 0x65, 0x6c, 0x75, 0x3b, 0x66, 0x75, 0x6e,
  0x63, 0x74, 0x69, 0x6f, 0x6e, 0x61, 0x6c, 0x5f, 0x31, 0x2f, 0x63, 0x6f,
  0x6e, 0x76, 0x32, 0x64, 0x5f, 0x32, 0x5f, 0x31, 0x2f, 0x42, 0x69, 0x61,
  0x73, 0x41, 0x64, 0x64, 0x3b, 0x66, 0x75, 0x6e, 0x63, 0x74, 0x69, 0x6f,
  0x6e, 0x61, 0x6c, 0x5f, 0x31, 0x2f, 0x63, 0x6f, 0x6e, 0x76, 0x32, 0x64,
  0x5f, 0x32, 0x5f, 0x31, 0x2f, 0x63, 0x6f, 0x6e, 0x76, 0x6f, 0x6c, 0x75,
  0x74, 0x69, 0x6f, 0x6e, 0x3b, 0x66, 0x75, 0x6e, 0x63, 0x74, 0x69, 0x6f,
  0x6e, 0x61, 0x6c, 0x5f, 0x31, 0x2f, 0x63, 0x6f, 0x6e, 0x76, 0x32, 0x64,
  0x5f, 0x32, 0x5f, 0x31, 0x2f, 0x53, 0x71, 0x75, 0x65, 0x65, 0x7a, 0x65,
  0x00, 0x00, 0x00, 0x00, 0x04, 0x00, 0x00, 0x00, 0x01, 0x00, 0x00, 0x00,
  0x04, 0x00, 0x00, 0x00, 0x04, 0x00, 0x00, 0x00, 0x20, 0x00, 0x00, 0x00,
  0x2a, 0xf5, 0xff, 0xff, 0x00, 0x00, 0x00, 0x01, 0x14, 0x00, 0x00, 0x00,
  0x30, 0x00, 0x00, 0x00, 0x0c, 0x00, 0x00, 0x00, 0x00, 0x00, 0x00, 0x09,
  0xac, 0x00, 0x00, 0x00, 0x14, 0xf5, 0xff, 0xff, 0x08, 0x00, 0x00, 0x00,
  0x10, 0x00, 0x00, 0x00, 0x01, 0x00, 0x00, 0x00, 0x80, 0xff, 0xff, 0xff,
  0xff, 0xff, 0xff, 0xff, 0x01, 0x00, 0x00, 0x00, 0x46, 0x0a, 0x4e, 0x3d,
  0x80, 0x00, 0x00, 0x00, 0x66, 0x75, 0x6e, 0x63, 0x74, 0x69, 0x6f, 0x6e,
  0x61, 0x6c, 0x5f, 0x31, 0x2f, 0x63, 0x6f, 0x6e, 0x76, 0x32, 0x64, 0x5f,
  0x31, 0x5f, 0x32, 0x2f, 0x52, 0x65, 0x6c, 0x75, 0x3b, 0x66, 0x75, 0x6e,
  0x63, 0x74, 0x69, 0x6f, 0x6e, 0x61, 0x6c, 0x5f, 0x31, 0x2f, 0x63, 0x6f,
  0x6e, 0x76, 0x32, 0x64, 0x5f, 0x31, 0x5f, 0x32, 0x2f, 0x42, 0x69, 0x61,
  0x73, 0x41, 0x64, 0x64, 0x3b, 0x66, 0x75, 0x6e, 0x63, 0x74, 0x69, 0x6f,
  0x6e, 0x61, 0x6c, 0x5f, 0x31, 0x2f, 0x63, 0x6f, 0x6e, 0x76, 0x32, 0x64,
  0x5f, 0x31, 0x5f, 0x32, 0x2f, 0x63, 0x6f, 0x6e, 0x76, 0x6f, 0x6c, 0x75,
  0x74, 0x69, 0x6f, 0x6e, 0x3b, 0x66, 0x75, 0x6e, 0x63, 0x74, 0x69, 0x6f,
  0x6e, 0x61, 0x6c, 0x5f, 0x31, 0x2f, 0x63, 0x6f, 0x6e, 0x76, 0x32, 0x64,
  0x5f, 0x31, 0x5f, 0x32, 0x2f, 0x53, 0x71, 0x75, 0x65, 0x65, 0x7a, 0x65,
  0x00, 0x00, 0x00, 0x00, 0x04, 0x00, 0x00, 0x00, 0x01, 0x00, 0x00, 0x00,
  0x08, 0x00, 0x00, 0x00, 0x08, 0x00, 0x00, 0x00, 0x10, 0x00, 0x00, 0x00,
  0x02, 0xf6, 0xff, 0xff, 0x00, 0x00, 0x00, 0x01, 0x14, 0x00, 0x00, 0x00,
  0x30, 0x00, 0x00, 0x00, 0x0b, 0x00, 0x00, 0x00, 0x00, 0x00, 0x00, 0x09,
  0xa4, 0x00, 0x00, 0x00, 0xec, 0xf5, 0xff, 0xff, 0x08, 0x00, 0x00, 0x00,
  0x10, 0x00, 0x00, 0x00, 0x01, 0x00, 0x00, 0x00, 0x80, 0xff, 0xff, 0xff,
  0xff, 0xff, 0xff, 0xff, 0x01, 0x00, 0x00, 0x00, 0xdf, 0xc7, 0x80, 0x3c,
  0x79, 0x00, 0x00, 0x00, 0x66, 0x75, 0x6e, 0x63, 0x74, 0x69, 0x6f, 0x6e,
  0x61, 0x6c, 0x5f, 0x31, 0x2f, 0x63, 0x6f, 0x6e, 0x76, 0x32, 0x64, 0x5f,
  0x31, 0x2f, 0x52, 0x65, 0x6c, 0x75, 0x3b, 0x66, 0x75, 0x6e, 0x63, 0x74,
  0x69, 0x6f, 0x6e, 0x61, 0x6c, 0x5f, 0x31, 0x2f, 0x63, 0x6f, 0x6e, 0x76,
  0x32, 0x64, 0x5f, 0x31, 0x2f, 0x42, 0x69, 0x61, 0x73, 0x41, 0x64, 0x64,
  0x3b, 0x66, 0x75, 0x6e, 0x63, 0x74, 0x69, 0x6f, 0x6e, 0x61, 0x6c, 0x5f,
  0x31, 0x2f, 0x63, 0x6f, 0x6e, 0x76, 0x32, 0x64, 0x5f, 0x31, 0x2f, 0x63,
  0x6f, 0x6e, 0x76, 0x6f, 0x6c, 0x75, 0x74, 0x69, 0x6f, 0x6e, 0x3b, 0x66,
  0x75, 0x6e, 0x63, 0x74, 0x69, 0x6f, 0x6e, 0x61, 0x6c, 0x5f, 0x31, 0x2f,
  0x63, 0x6f, 0x6e, 0x76, 0x32, 0x64, 0x5f, 0x31, 0x2f, 0x53, 0x71, 0x75,
  0x65, 0x65, 0x7a, 0x65, 0x31, 0x00, 0x00, 0x00, 0x04, 0x00, 0x00, 0x00,
  0x01, 0x00, 0x00, 0x00, 0x10, 0x00, 0x00, 0x00, 0x10, 0x00, 0x00, 0x00,
  0x08, 0x00, 0x00, 0x00, 0xd2, 0xf6, 0xff, 0xff, 0x00, 0x00, 0x00, 0x01,
  0x14, 0x00, 0x00, 0x00, 0x88, 0x00, 0x00, 0x00, 0x0a, 0x00, 0x00, 0x00,
  0x00, 0x00, 0x00, 0x09, 0x94, 0x00, 0x00, 0x00, 0xbc, 0xf6, 0xff, 0xff,
  0x08, 0x00, 0x00, 0x00, 0x4c, 0x00, 0x00, 0x00, 0x08, 0x00, 0x00, 0x00,
  0x00, 0x00, 0x00, 0x00, 0x00, 0x00, 0x00, 0x00, 0x00, 0x00, 0x00, 0x00,
  0x00, 0x00, 0x00, 0x00, 0x00, 0x00, 0x00, 0x00, 0x00, 0x00, 0x00, 0x00,
  0x00, 0x00, 0x00, 0x00, 0x00, 0x00, 0x00, 0x00, 0x00, 0x00, 0x00, 0x00,
  0x00, 0x00, 0x00, 0x00, 0x00, 0x00, 0x00, 0x00, 0x00, 0x00, 0x00, 0x00,
  0x00, 0x00, 0x00, 0x00, 0x00, 0x00, 0x00, 0x00, 0x00, 0x00, 0x00, 0x00,
  0x00, 0x00, 0x00, 0x00, 0x00, 0x00, 0x00, 0x00, 0x08, 0x00, 0x00, 0x00,
  0x78, 0xf2, 0xac, 0x37, 0x6b, 0x58, 0x9c, 0x37, 0x4e, 0xa4, 0x1f, 0x38,
  0x9d, 0xa2, 0xb1, 0x37, 0x8c, 0x24, 0xb9, 0x37, 0xb8, 0xaa, 0x8f, 0x37,
  0x02, 0x4c, 0x96, 0x37, 0xdc, 0x76, 0xeb, 0x37, 0x12, 0x00, 0x00, 0x00,
  0x74, 0x66, 0x6c, 0x2e, 0x70, 0x73, 0x65, 0x75, 0x64, 0x6f, 0x5f, 0x71,
  0x63, 0x6f, 0x6e, 0x73, 0x74, 0x37, 0x00, 0x00, 0x04, 0x00, 0x00, 0x00,
  0x08, 0x00, 0x00, 0x00, 0x03, 0x00, 0x00, 0x00, 0x03, 0x00, 0x00, 0x00,
  0x03, 0x00, 0x00, 0x00, 0x92, 0xf7, 0xff, 0xff, 0x00, 0x00, 0x00, 0x01,
  0x14, 0x00, 0x00, 0x00, 0x84, 0x00, 0x00, 0x00, 0x09, 0x00, 0x00, 0x00,
  0x00, 0x00, 0x00, 0x02, 0x90, 0x00, 0x00, 0x00, 0x7c, 0xf7, 0xff, 0xff,
  0x08, 0x00, 0x00, 0x00, 0x48, 0x00, 0x00, 0x00, 0x08, 0x00, 0x00, 0x00,
  0x00, 0x00, 0x00, 0x00, 0x00, 0x00, 0x00, 0x00, 0x00, 0x00, 0x00, 0x00,
  0x00, 0x00, 0x00, 0x00, 0x00, 0x00, 0x00, 0x00, 0x00, 0x00, 0x00, 0x00,
  0x00, 0x00, 0x00, 0x00, 0x00, 0x00, 0x00, 0x00, 0x00, 0x00, 0x00, 0x00,
  0x00, 0x00, 0x00, 0x00, 0x00, 0x00, 0x00, 0x00, 0x00, 0x00, 0x00, 0x00,
  0x00, 0x00, 0x00, 0x00, 0x00, 0x00, 0x00, 0x00, 0x00, 0x00, 0x00, 0x00,
  0x00, 0x00, 0x00, 0x00, 0x08, 0x00, 0x00, 0x00, 0x78, 0xf2, 0xac, 0x37,
  0x6b, 0x58, 0x9c, 0x37, 0x4e, 0xa4, 0x1f, 0x38, 0x9d, 0xa2, 0xb1, 0x37,
  0x8c, 0x24, 0xb9, 0x37, 0xb8, 0xaa, 0x8f, 0x37, 0x02, 0x4c, 0x96, 0x37,
  0xdc, 0x76, 0xeb, 0x37, 0x12, 0x00, 0x00, 0x00, 0x74, 0x66, 0x6c, 0x2e,
  0x70, 0x73, 0x65, 0x75, 0x64, 0x6f, 0x5f, 0x71, 0x63, 0x6f, 0x6e, 0x73,
  0x74, 0x36, 0x00, 0x00, 0x01, 0x00, 0x00, 0x00, 0x08, 0x00, 0x00, 0x00,
  0x42, 0xf8, 0xff, 0xff, 0x00, 0x00, 0x00, 0x01, 0x14, 0x00, 0x00, 0x00,
  0xe8, 0x00, 0x00, 0x00, 0x08, 0x00, 0x00, 0x00, 0x00, 0x00, 0x00, 0x09,
  0xf4, 0x00, 0x00, 0x00, 0x2c, 0xf8, 0xff, 0xff, 0x08, 0x00, 0x00, 0x00,
  0x8c, 0x00, 0x00, 0x00, 0x10, 0x00, 0x00, 0x00, 0x00, 0x00, 0x00, 0x00,
  0x00, 0x00, 0x00, 0x00, 0x00, 0x00, 0x00, 0x00, 0x00, 0x00, 0x00, 0x00,
  0x00, 0x00, 0x00, 0x00, 0x00, 0x00, 0x00, 0x00, 0x00, 0x00, 0x00, 0x00,
  0x00, 0x00, 0x00, 0x00, 0x00, 0x00, 0x00, 0x00, 0x00, 0x00, 0x00, 0x00,
  0x00, 0x00, 0x00, 0x00, 0x00, 0x00, 0x00, 0x00, 0x00, 0x00, 0x00, 0x00,
  0x00, 0x00, 0x00, 0x00, 0x00, 0x00, 0x00, 0x00, 0x00, 0x00, 0x00, 0x00,
  0x00, 0x00, 0x00, 0x00, 0x00, 0x00, 0x00, 0x00, 0x00, 0x00, 0x00, 0x00,
  0x00, 0x00, 0x00, 0x00, 0x00, 0x00, 0x00, 0x00, 0x00, 0x00, 0x00, 0x00,
  0x00, 0x00, 0x00, 0x00, 0x00, 0x00, 0x00, 0x00, 0x00, 0x00, 0x00, 0x00,
  0x00, 0x00, 0x00, 0x00, 0x00, 0x00, 0x00, 0x00, 0x00, 0x00, 0x00, 0x00,
  0x00, 0x00, 0x00, 0x00, 0x00, 0x00, 0x00, 0x00, 0x00, 0x00, 0x00, 0x00,
  0x00, 0x00, 0x00, 0x00, 0x00, 0x00, 0x00, 0x00, 0x10, 0x00, 0x00, 0x00,
  0xfe, 0x7d, 0x96, 0x3b, 0x9d, 0x6a, 0xec, 0x3b, 0x34, 0x76, 0x8b, 0x3b,
  0xeb, 0xbd, 0xb8, 0x3b, 0x29, 0xef, 0x91, 0x3b, 0xb5, 0x8c, 0x9a, 0x3b,
  0x6a, 0xb7, 0xa0, 0x3b, 0x3a, 0x03, 0xa7, 0x3b, 0x14, 0x34, 0x85, 0x3b,
  0xcb, 0x7d, 0xc7, 0x3b, 0xad, 0xbf, 0xb3, 0x3b, 0xd8, 0x1e, 0x8c, 0x3b,
  0x6c, 0x09, 0xb6, 0x3b, 0xed, 0x6a, 0xab, 0x3b, 0xa0, 0x8c, 0x0c, 0x3c,
  0x38, 0xb5, 0x7e, 0x3b, 0x12, 0x00, 0x00, 0x00, 0x74, 0x66, 0x6c, 0x2e,
  0x70, 0x73, 0x65, 0x75, 0x64, 0x6f, 0x5f, 0x71, 0x63, 0x6f, 0x6e, 0x73,
  0x74, 0x35, 0x00, 0x00, 0x04, 0x00, 0x00, 0x00, 0x10, 0x00, 0x00, 0x00,
  0x03, 0x00, 0x00, 0x00, 0x03, 0x00, 0x00, 0x00, 0x08, 0x00, 0x00, 0x00,
  0x62, 0xf9, 0xff, 0xff, 0x00, 0x00, 0x00, 0x01, 0x14, 0x00, 0x00, 0x00,
  0xe4, 0x00, 0x00, 0x00, 0x07, 0x00, 0x00, 0x00, 0x00, 0x00, 0x00, 0x02,
  0xf0, 0x00, 0x00, 0x00, 0x4c, 0xf9, 0xff, 0xff, 0x08, 0x00, 0x00, 0x00,
  0x88, 0x00, 0x00, 0x00, 0x10, 0x00, 0x00, 0x00, 0x00, 0x00, 0x00, 0x00,
  0x00, 0x00, 0x00, 0x00, 0x00, 0x00, 0x00, 0x00, 0x00, 0x00, 0x00, 0x00,
  0x00, 0x00, 0x00, 0x00, 0x00, 0x00, 0x00, 0x00, 0x00, 0x00, 0x00, 0x00,
  0x00, 0x00, 0x00, 0x00, 0x00, 0x00, 0x00, 0x00, 0x00, 0x00, 0x00, 0x00,
  0x00, 0x00, 0x00, 0x00, 0x00, 0x00, 0x00, 0x00, 0x00, 0x00, 0x00, 0x00,
  0x00, 0x00, 0x00, 0x00, 0x00, 0x00, 0x00, 0x00, 0x00, 0x00, 0x00, 0x00,
  0x00, 0x00, 0x00, 0x00, 0x00, 0x00, 0x00, 0x00, 0x00, 0x00, 0x00, 0x00,
  0x00, 0x00, 0x00, 0x00, 0x00, 0x00, 0x00, 0x00, 0x00, 0x00, 0x00, 0x00,
  0x00, 0x00, 0x00, 0x00, 0x00, 0x00, 0x00, 0x00, 0x00, 0x00, 0x00, 0x00,
  0x00, 0x00, 0x00, 0x00, 0x00, 0x00, 0x00, 0x00, 0x00, 0x00, 0x00, 0x00,
  0x00, 0x00, 0x00, 0x00, 0x00, 0x00, 0x00, 0x00, 0x00, 0x00, 0x00, 0x00,
  0x00, 0x00, 0x00, 0x00, 0x10, 0x00, 0x00, 0x00, 0xfc, 0x68, 0x97, 0x38,
  0xc7, 0xdb, 0xed, 0x38, 0xf9, 0x4f, 0x8c, 0x38, 0x64, 0xde, 0xb9, 0x38,
  0x09, 0xd3, 0x92, 0x38, 0x09, 0x7e, 0x9b, 0x38, 0x5f, 0xb2, 0xa1, 0x38,
  0x04, 0x08, 0xa8, 0x38, 0x13, 0x04, 0x86, 0x38, 0x4c, 0xb5, 0xc8, 0x38,
  0x5a, 0xd8, 0xb4, 0x38, 0xa4, 0xf9, 0x8c, 0x38, 0xac, 0x25, 0xb7, 0x38,
  0x98, 0x76, 0xac, 0x38, 0x17, 0x68, 0x0d, 0x39, 0x79, 0x21, 0x80, 0x38,
  0x12, 0x00, 0x00, 0x00, 0x74, 0x66, 0x6c, 0x2e, 0x70, 0x73, 0x65, 0x75,
  0x64, 0x6f, 0x5f, 0x71, 0x63, 0x6f, 0x6e, 0x73, 0x74, 0x34, 0x00, 0x00,
  0x01, 0x00, 0x00, 0x00, 0x10, 0x00, 0x00, 0x00, 0x72, 0xfa, 0xff, 0xff,
  0x00, 0x00, 0x00, 0x01, 0x14, 0x00, 0x00, 0x00, 0xa8, 0x01, 0x00, 0x00,
  0x06, 0x00, 0x00, 0x00, 0x00, 0x00, 0x00, 0x09, 0xb4, 0x01, 0x00, 0x00,
  0x5c, 0xfa, 0xff, 0xff, 0x08, 0x00, 0x00, 0x00, 0x0c, 0x01, 0x00, 0x00,
  0x20, 0x00, 0x00, 0x00, 0x00, 0x00, 0x00, 0x00, 0x00, 0x00, 0x00, 0x00,
  0x00, 0x00, 0x00, 0x00, 0x00, 0x00, 0x00, 0x00, 0x00, 0x00, 0x00, 0x00,
  0x00, 0x00, 0x00, 0x00, 0x00, 0x00, 0x00, 0x00, 0x00, 0x00, 0x00, 0x00,
  0x00, 0x00, 0x00, 0x00, 0x00, 0x00, 0x00, 0x00, 0x00, 0x00, 0x00, 0x00,
  0x00, 0x00, 0x00, 0x00, 0x00, 0x00, 0x00, 0x00, 0x00, 0x00, 0x00, 0x00,
  0x00, 0x00, 0x00, 0x00, 0x00, 0x00, 0x00, 0x00, 0x00, 0x00, 0x00, 0x00,
  0x00, 0x00, 0x00, 0x00, 0x00, 0x00, 0x00, 0x00, 0x00, 0x00, 0x00, 0x00,
  0x00, 0x00, 0x00, 0x00, 0x00, 0x00, 0x00, 0x00, 0x00, 0x00, 0x00, 0x00,
  0x00, 0x00, 0x00, 0x00, 0x00, 0x00, 0x00, 0x00, 0x00, 0x00, 0x00, 0x00,
  0x00, 0x00, 0x00, 0x00, 0x00, 0x00, 0x00, 0x00, 0x00, 0x00, 0x00, 0x00,
  0x00, 0x00, 0x00, 0x00, 0x00, 0x00, 0x00, 0x00, 0x00, 0x00, 0x00, 0x00,
  0x00, 0x00, 0x00, 0x00, 0x00, 0x00, 0x00, 0x00, 0x00, 0x00, 0x00, 0x00,
  0x00, 0x00, 0x00, 0x00, 0x00, 0x00, 0x00, 0x00, 0x00, 0x00, 0x00, 0x00,
  0x00, 0x00, 0x00, 0x00, 0x00, 0x00, 0x00, 0x00, 0x00, 0x00, 0x00, 0x00,
  0x00, 0x00, 0x00, 0x00, 0x00, 0x00, 0x00, 0x00, 0x00, 0x00, 0x00, 0x00,
  0x00, 0x00, 0x00, 0x00, 0x00, 0x00, 0x00, 0x00, 0x00, 0x00, 0x00, 0x00,
  0x00, 0x00, 0x00, 0x00, 0x00, 0x00, 0x00, 0x00, 0x00, 0x00, 0x00, 0x00,
  0x00, 0x00, 0x00, 0x00, 0x00, 0x00, 0x00, 0x00, 0x00, 0x00, 0x00, 0x00,
  0x00, 0x00, 0x00, 0x00, 0x00, 0x00, 0x00, 0x00, 0x00, 0x00, 0x00, 0x00,
  0x00, 0x00, 0x00, 0x00, 0x00, 0x00, 0x00, 0x00, 0x00, 0x00, 0x00, 0x00,
  0x00, 0x00, 0x00, 0x00, 0x00, 0x00, 0x00, 0x00, 0x00, 0x00, 0x00, 0x00,
  0x00, 0x00, 0x00, 0x00, 0x00, 0x00, 0x00, 0x00, 0x00, 0x00, 0x00, 0x00,
  0x20, 0x00, 0x00, 0x00, 0xc3, 0xa2, 0x83, 0x3b, 0x59, 0xb1, 0x66, 0x3b,
  0x6f, 0x95, 0x4e, 0x3b, 0xd8, 0x1e, 0x84, 0x3b, 0xa0, 0xd5, 0x9d, 0x3b,
  0x78, 0xf5, 0x29, 0x3b, 0xfe, 0xb8, 0x97, 0x3b, 0x8c, 0x4c, 0x89, 0x3b,
  0x15, 0x37, 0x92, 0x3b, 0xef, 0x39, 0x82, 0x3b, 0xf3, 0x7d, 0xb0, 0x3b,
  0x6c, 0x18, 0x73, 0x3b, 0x8a, 0xde, 0x2e, 0x3b, 0x6b, 0xc6, 0x88, 0x3b,
  0x0b, 0x01, 0x1f, 0x3b, 0xe3, 0x90, 0x93, 0x3b, 0xbc, 0x5d, 0x4a, 0x3b,
  0xe2, 0x47, 0x8f, 0x3b, 0xee, 0x4e, 0x83, 0x3b, 0x85, 0x15, 0x3c, 0x3b,
  0x34, 0xf3, 0x77, 0x3b, 0xcc, 0x0d, 0x96, 0x3b, 0x63, 0x49, 0x86, 0x3b,
  0x6b, 0xb6, 0x8b, 0x3b, 0x16, 0x61, 0x34, 0x3b, 0xc6, 0x34, 0x7b, 0x3b,
  0x0b, 0x10, 0x71, 0x3b, 0x20, 0x2d, 0x8a, 0x3b, 0xff, 0x40, 0x9b, 0x3b,
  0xc1, 0xf4, 0x86, 0x3b, 0xba, 0x8d, 0x90, 0x3b, 0x41, 0xd7, 0x8f, 0x3b,
  0x12, 0x00, 0x00, 0x00, 0x74, 0x66, 0x6c, 0x2e, 0x70, 0x73, 0x65, 0x75,
  0x64, 0x6f, 0x5f, 0x71, 0x63, 0x6f, 0x6e, 0x73, 0x74, 0x33, 0x00, 0x00,
  0x04, 0x00, 0x00, 0x00, 0x20, 0x00, 0x00, 0x00, 0x03, 0x00, 0x00, 0x00,
  0x03, 0x00, 0x00, 0x00, 0x10, 0x00, 0x00, 0x00, 0x52, 0xfc, 0xff, 0xff,
  0x00, 0x00, 0x00, 0x01, 0x14, 0x00, 0x00, 0x00, 0xa4, 0x01, 0x00, 0x00,
  0x05, 0x00, 0x00, 0x00, 0x00, 0x00, 0x00, 0x02, 0xb0, 0x01, 0x00, 0x00,
  0x3c, 0xfc, 0xff, 0xff, 0x08, 0x00, 0x00, 0x00, 0x08, 0x01, 0x00, 0x00,
  0x20, 0x00, 0x00, 0x00, 0x00, 0x00, 0x00, 0x00, 0x00, 0x00, 0x00, 0x00,
  0x00, 0x00, 0x00, 0x00, 0x00, 0x00, 0x00, 0x00, 0x00, 0x00, 0x00, 0x00,
  0x00, 0x00, 0x00, 0x00, 0x00, 0x00, 0x00, 0x00, 0x00, 0x00, 0x00, 0x00,
  0x00, 0x00, 0x00, 0x00, 0x00, 0x00, 0x00, 0x00, 0x00, 0x00, 0x00, 0x00,
  0x00, 0x00, 0x00, 0x00, 0x00, 0x00, 0x00, 0x00, 0x00, 0x00, 0x00, 0x00,
  0x00, 0x00, 0x00, 0x00, 0x00, 0x00, 0x00, 0x00, 0x00, 0x00, 0x00, 0x00,
  0x00, 0x00, 0x00, 0x00, 0x00, 0x00, 0x00, 0x00, 0x00, 0x00, 0x00, 0x00,
  0x00, 0x00, 0x00, 0x00, 0x00, 0x00, 0x00, 0x00, 0x00, 0x00, 0x00, 0x00,
  0x00, 0x00, 0x00, 0x00, 0x00, 0x00, 0x00, 0x00, 0x00, 0x00, 0x00, 0x00,
  0x00, 0x00, 0x00, 0x00, 0x00, 0x00, 0x00, 0x00, 0x00, 0x00, 0x00, 0x00,
  0x00, 0x00, 0x00, 0x00, 0x00, 0x00, 0x00, 0x00, 0x00, 0x00, 0x00, 0x00,
  0x00, 0x00, 0x00, 0x00, 0x00, 0x00, 0x00, 0x00, 0x00, 0x00, 0x00, 0x00,
  0x00, 0x00, 0x00, 0x00, 0x00, 0x00, 0x00, 0x00, 0x00, 0x00, 0x00, 0x00,
  0x00, 0x00, 0x00, 0x00, 0x00, 0x00, 0x00, 0x00, 0x00, 0x00, 0x00, 0x00,
  0x00, 0x00, 0x00, 0x00, 0x00, 0x00, 0x00, 0x00, 0x00, 0x00, 0x00, 0x00,
  0x00, 0x00, 0x00, 0x00, 0x00, 0x00, 0x00, 0x00, 0x00, 0x00, 0x00, 0x00,
  0x00, 0x00, 0x00, 0x00, 0x00, 0x00, 0x00, 0x00, 0x00, 0x00, 0x00, 0x00,
  0x00, 0x00, 0x00, 0x00, 0x00, 0x00, 0x00, 0x00, 0x00, 0x00, 0x00, 0x00,
  0x00, 0x00, 0x00, 0x00, 0x00, 0x00, 0x00, 0x00, 0x00, 0x00, 0x00, 0x00,
  0x00, 0x00, 0x00, 0x00, 0x00, 0x00, 0x00, 0x00, 0x00, 0x00, 0x00, 0x00,
  0x00, 0x00, 0x00, 0x00, 0x00, 0x00, 0x00, 0x00, 0x00, 0x00, 0x00, 0x00,
  0x00, 0x00, 0x00, 0x00, 0x00, 0x00, 0x00, 0x00, 0x20, 0x00, 0x00, 0x00,
  0x83, 0xe4, 0x53, 0x39, 0xf8, 0xab, 0x39, 0x39, 0x8a, 0x44, 0x26, 0x39,
  0x3e, 0xac, 0x54, 0x39, 0x79, 0x10, 0x7e, 0x39, 0x59, 0xca, 0x08, 0x39,
  0xe6, 0x39, 0x74, 0x39, 0x36, 0x02, 0x5d, 0x39, 0x62, 0x5c, 0x6b, 0x39,
  0xb0, 0x9f, 0x51, 0x39, 0x6f, 0x0c, 0x8e, 0x39, 0x68, 0xa7, 0x43, 0x39,
  0x18, 0xbe, 0x0c, 0x39, 0x4f, 0x2a, 0x5c, 0x39, 0x71, 0xf2, 0xff, 0x38,
  0x05, 0x89, 0x6d, 0x39, 0x8c, 0xdf, 0x22, 0x39, 0x30, 0xa3, 0x66, 0x39,
  0x91, 0x5d, 0x53, 0x39, 0xdd, 0x60, 0x17, 0x39, 0xa7, 0x8f, 0x47, 0x39,
  0x3f, 0x8a, 0x71, 0x39, 0xe2, 0x28, 0x58, 0x39, 0xcb, 0xe4, 0x60, 0x39,
  0x5d, 0x2d, 0x11, 0x39, 0x8c, 0x2e, 0x4a, 0x39, 0x95, 0x04, 0x42, 0x39,
  0xb7, 0x6b, 0x5e, 0x39, 0x10, 0xe9, 0x79, 0x39, 0xbc, 0x3c, 0x59, 0x39,
  0xb1, 0xaf, 0x68, 0x39, 0xf8, 0x89, 0x67, 0x39, 0x12, 0x00, 0x00, 0x00,
  0x74, 0x66, 0x6c, 0x2e, 0x70, 0x73, 0x65, 0x75, 0x64, 0x6f, 0x5f, 0x71,
  0x63, 0x6f, 0x6e, 0x73, 0x74, 0x32, 0x00, 0x00, 0x01, 0x00, 0x00, 0x00,
  0x20, 0x00, 0x00, 0x00, 0x22, 0xfe, 0xff, 0xff, 0x00, 0x00, 0x00, 0x01,
  0x14, 0x00, 0x00, 0x00, 0xa0, 0x00, 0x00, 0x00, 0x04, 0x00, 0x00, 0x00,
  0x00, 0x00, 0x00, 0x09, 0xac, 0x00, 0x00, 0x00, 0x0c, 0xfe, 0xff, 0xff,
  0x08, 0x00, 0x00, 0x00, 0x5c, 0x00, 0x00, 0x00, 0x0a, 0x00, 0x00, 0x00,
  0x00, 0x00, 0x00, 0x00, 0x00, 0x00, 0x00, 0x00, 0x00, 0x00, 0x00, 0x00,
  0x00, 0x00, 0x00, 0x00, 0x00, 0x00, 0x00, 0x00, 0x00, 0x00, 0x00, 0x00,
  0x00, 0x00, 0x00, 0x00, 0x00, 0x00, 0x00, 0x00, 0x00, 0x00, 0x00, 0x00,
  0x00, 0x00, 0x00, 0x00, 0x00, 0x00, 0x00, 0x00, 0x00, 0x00, 0x00, 0x00,
  0x00, 0x00, 0x00, 0x00, 0x00, 0x00, 0x00, 0x00, 0x00, 0x00, 0x00, 0x00,
  0x00, 0x00, 0x00, 0x00, 0x00, 0x00, 0x00, 0x00, 0x00, 0x00, 0x00, 0x00,
  0x00, 0x00, 0x00, 0x00, 0x00, 0x00, 0x00, 0x00, 0x00, 0x00, 0x00, 0x00,
  0x0a, 0x00, 0x00, 0x00, 0xf9, 0x99, 0x8c, 0x3b, 0x8a, 0x23, 0xd7, 0x3b,
  0x9b, 0x4b, 0xc7, 0x3b, 0x3d, 0xfd, 0xbd, 0x3b, 0xa9, 0xb2, 0xa1, 0x3b,
  0x7f, 0xd6, 0xbc, 0x3b, 0x66, 0x39, 0xc2, 0x3b, 0x78, 0x2c, 0xaa, 0x3b,
  0xbb, 0x85, 0x92, 0x3b, 0x4b, 0x73, 0x8e, 0x3b, 0x12, 0x00, 0x00, 0x00,
  0x74, 0x66, 0x6c, 0x2e, 0x70, 0x73, 0x65, 0x75, 0x64, 0x6f, 0x5f, 0x71,
  0x63, 0x6f, 0x6e, 0x73, 0x74, 0x31, 0x00, 0x00, 0x02, 0x00, 0x00, 0x00,
  0x0a, 0x00, 0x00, 0x00, 0x00, 0x02, 0x00, 0x00, 0xf2, 0xfe, 0xff, 0xff,
  0x00, 0x00, 0x00, 0x01, 0x14, 0x00, 0x00, 0x00, 0xa0, 0x00, 0x00, 0x00,
  0x03, 0x00, 0x00, 0x00, 0x00, 0x00, 0x00, 0x02, 0xac, 0x00, 0x00, 0x00,
  0xdc, 0xfe, 0xff, 0xff, 0x08, 0x00, 0x00, 0x00, 0x5c, 0x00, 0x00, 0x00,
  0x0a, 0x00, 0x00, 0x00, 0x00, 0x00, 0x00, 0x00, 0x00, 0x00, 0x00, 0x00,
  0x00, 0x00, 0x00, 0x00, 0x00, 0x00, 0x00, 0x00, 0x00, 0x00, 0x00, 0x00,
  0x00, 0x00, 0x00, 0x00, 0x00, 0x00, 0x00, 0x00, 0x00, 0x00, 0x00, 0x00,
  0x00, 0x00, 0x00, 0x00, 0x00, 0x00, 0x00, 0x00, 0x00, 0x00, 0x00, 0x00,
  0x00, 0x00, 0x00, 0x00, 0x00, 0x00, 0x00, 0x00, 0x00, 0x00, 0x00, 0x00,
  0x00, 0x00, 0x00, 0x00, 0x00, 0x00, 0x00, 0x00, 0x00, 0x00, 0x00, 0x00,
  0x00, 0x00, 0x00, 0x00, 0x00, 0x00, 0x00, 0x00, 0x00, 0x00, 0x00, 0x00,
  0x00, 0x00, 0x00, 0x00, 0x0a, 0x00, 0x00, 0x00, 0x00, 0xf3, 0x0a, 0x3a,
  0x55, 0x9c, 0x54, 0x3a, 0x10, 0xf4, 0x44, 0x3a, 0xb1, 0xc1, 0x3b, 0x3a,
  0x39, 0xcc, 0x1f, 0x3a, 0x69, 0x9e, 0x3a, 0x3a, 0x1c, 0xf1, 0x3f, 0x3a,
  0x88, 0x2c, 0x28, 0x3a, 0xf2, 0xcc, 0x10, 0x3a, 0xc2, 0xc6, 0x0c, 0x3a,
  0x11, 0x00, 0x00, 0x00, 0x74, 0x66, 0x6c, 0x2e, 0x70, 0x73, 0x65, 0x75,
  0x64, 0x6f, 0x5f, 0x71, 0x63, 0x6f, 0x6e, 0x73, 0x74, 0x00, 0x00, 0x00,
  0x01, 0x00, 0x00, 0x00, 0x0a, 0x00, 0x00, 0x00, 0xbe, 0xff, 0xff, 0xff,
  0x00, 0x00, 0x00, 0x01, 0x18, 0x00, 0x00, 0x00, 0x18, 0x00, 0x00, 0x00,
  0x02, 0x00, 0x00, 0x00, 0x00, 0x00, 0x00, 0x02, 0x20, 0x00, 0x00, 0x00,
  0x04, 0x00, 0x04, 0x00, 0x04, 0x00, 0x00, 0x00, 0x0e, 0x00, 0x00, 0x00,
  0x61, 0x72, 0x69, 0x74, 0x68, 0x2e, 0x63, 0x6f, 0x6e, 0x73, 0x74, 0x61,
  0x6e, 0x74, 0x00, 0x00, 0x01, 0x00, 0x00, 0x00, 0x02, 0x00, 0x00, 0x00,
  0x00, 0x00, 0x16, 0x00, 0x1c, 0x00, 0x18, 0x00, 0x17, 0x00, 0x10, 0x00,
  0x0c, 0x00, 0x08, 0x00, 0x00, 0x00, 0x00, 0x00, 0x00, 0x00, 0x07, 0x00,
  0x16, 0x00, 0x00, 0x00, 0x00, 0x00, 0x00, 0x01, 0x20, 0x00, 0x00, 0x00,
  0x40, 0x00, 0x00, 0x00, 0x01, 0x00, 0x00, 0x00, 0x00, 0x00, 0x00, 0x09,
  0x3c, 0x00, 0x00, 0x00, 0x0c, 0x00, 0x0c, 0x00, 0x00, 0x00, 0x00, 0x00,
  0x08, 0x00, 0x04, 0x00, 0x0c, 0x00, 0x00, 0x00, 0x08, 0x00, 0x00, 0x00,
  0x14, 0x00, 0x00, 0x00, 0x01, 0x00, 0x00, 0x00, 0x80, 0xff, 0xff, 0xff,
  0xff, 0xff, 0xff, 0xff, 0x00, 0x00, 0x00, 0x00, 0x01, 0x00, 0x00, 0x00,
  0x00, 0x00, 0x80, 0x3f, 0x01, 0x00, 0x00, 0x00, 0x78, 0x00, 0x00, 0x00,
  0x04, 0x00, 0x00, 0x00, 0x01, 0x00, 0x00, 0x00, 0x20, 0x00, 0x00, 0x00,
  0x20, 0x00, 0x00, 0x00, 0x03, 0x00, 0x00, 0x00, 0x04, 0x00, 0x00, 0x00,
  0x54, 0x00, 0x00, 0x00, 0x38, 0x00, 0x00, 0x00, 0x18, 0x00, 0x00, 0x00,
  0x04, 0x00, 0x00, 0x00, 0xc8, 0xff, 0xff, 0xff, 0x19, 0x00, 0x00, 0x00,
  0x02, 0x00, 0x00, 0x00, 0x00, 0x00, 0x00, 0x19, 0xd8, 0xff, 0xff, 0xff,
  0x09, 0x00, 0x00, 0x00, 0x04, 0x00, 0x00, 0x00, 0x00, 0x00, 0x00, 0x09,
  0x0c, 0x00, 0x0c, 0x00, 0x0b, 0x00, 0x00, 0x00, 0x00, 0x00, 0x04, 0x00,
  0x0c, 0x00, 0x00, 0x00, 0x16, 0x00, 0x00, 0x00, 0x00, 0x00, 0x00, 0x16,
  0x0c, 0x00, 0x10, 0x00, 0x0f, 0x00, 0x00, 0x00, 0x08, 0x00, 0x04, 0x00,
  0x0c, 0x00, 0x00, 0x00, 0x03, 0x00, 0x00, 0x00, 0x03, 0x00, 0x00, 0x00,
  0x00, 0x00, 0x00, 0x03
};
unsigned int g_magic_wand_model_data_len = 16024;
